{
  "version": "1.0",
  "truncation": {
    "direction": "Right",
    "max_length": 128,
    "strategy": "LongestFirst",
    "stride": 0
  },
  "padding": null,
  "added_tokens": [
    {
      "id": 0,
      "content": "<pad>",
      "single_word": false,
      "lstrip": false,
      "rstrip": false,
      "normalized": false,
      "special": true
    },
    {
      "id": 1,
      "content": "<unk>",
      "single_word": false,
      "lstrip": false,
      "rstrip": false,
      "normalized": false,
      "special": true
    },
    {
      "id": 2,
      "content": "<s>",
      "single_word": false,
      "lstrip": false,
      "rstrip": false,
      "normalized": false,
      "special": true
    },
    {
      "id": 3,
      "content": "</s>",
      "single_word": false,
      "lstrip": false,
      "rstrip": false,
      "normalized": false,
      "special": true
    },
    {
      "id": 4,
      "content": "<mask>",
      "single_word": false,
      "lstrip": false,
      "rstrip": false,
      "normalized": false,
      "special": true
    }
  ],
  "normalizer": {
    "type": "Sequence",
    "normalizers": [
      {
        "type": "Lowercase"
      }
    ]
  },
  "pre_tokenizer": {
    "type": "Whitespace"
  },
  "post_processor": {
    "type": "TemplateProcessing",
    "single": [
      {
        "SpecialToken": {
          "id": "<s>",
          "type_id": 0
        }
      },
      {
        "Sequence": {
          "id": "A",
          "type_id": 0
        }
      },
      {
        "SpecialToken": {
          "id": "</s>",
          "type_id": 0
        }
      }
    ],
    "pair": [
      {
        "SpecialToken": {
          "id": "<s>",
          "type_id": 0
        }
      },
      {
        "Sequence": {
          "id": "A",
          "type_id": 0
        }
      },
      {
        "SpecialToken": {
          "id": "</s>",
          "type_id": 0
        }
      },
      {
        "Sequence": {
          "id": "B",
          "type_id": 1
        }
      },
      {
        "SpecialToken": {
          "id": "</s>",
          "type_id": 1
        }
      }
    ],
    "special_tokens": {
      "</s>": {
        "id": "</s>",
        "ids": [
          3
        ],
        "tokens": [
          "</s>"
        ]
      },
      "<s>": {
        "id": "<s>",
        "ids": [
          2
        ],
        "tokens": [
          "<s>"
        ]
      }
    }
  },
  "decoder": {
    "type": "BPEDecoder",
    "suffix": "</w>"
  },
  "model": {
    "type": "BPE",
    "dropout": null,
    "unk_token": "<unk>",
    "continuing_subword_prefix": null,
    "end_of_word_suffix": null,
    "fuse_unk": false,
    "byte_fallback": false,
    "ignore_merges": false,
    "vocab": {
      "<pad>": 0,
      "<unk>": 1,
      "<s>": 2,
      "</s>": 3,
      "<mask>": 4,
      "(": 5,
      ")": 6,
      "*": 7,
      "+": 8,
      ",": 9,
      "-": 10,
      "0": 11,
      "1": 12,
      "2": 13,
      "3": 14,
      "4": 15,
      "5": 16,
      "6": 17,
      "7": 18,
      "8": 19,
      "9": 20,
      ":": 21,
      "[": 22,
      "]": 23,
      "a": 24,
      "b": 25,
      "c": 26,
      "d": 27,
      "e": 28,
      "f": 29,
      "g": 30,
      "h": 31,
      "i": 32,
      "j": 33,
      "k": 34,
      "l": 35,
      "m": 36,
      "n": 37,
      "o": 38,
      "p": 39,
      "q": 40,
      "r": 41,
      "s": 42,
      "t": 43,
      "u": 44,
      "v": 45,
      "w": 46,
      "x": 47,
      "y": 48,
      "z": 49,
      "0x": 50,
      "rd": 51,
      "mo": 52,
      "mov": 53,
      "tr": 54,
      "ptr": 55,
      "ord": 56,
      "word": 57,
      "ax": 58,
      "in": 59,
      "int": 60,
      "int3": 61,
      "qword": 62,
      "rax": 63,
      "rs": 64,
      "cx": 65,
      "rb": 66,
      "],": 67,
      "rcx": 68,
      "rsp": 69,
      "r1": 70,
      "0x1": 71,
      "al": 72,
      "0x2": 73,
      "ea": 74,
      "lea": 75,
      "eax": 76,
      "cal": 77,
      "call": 78,
      "rbp": 79,
      "rbx": 80,
      "dword": 81,
      "0x3": 82,
      "mp": 83,
      "te": 84,
      "rdx": 85,
      "r8": 86,
      "ip": 87,
      "rip": 88,
      "rdi": 89,
      "ed": 90,
      "0x4": 91,
      "ff": 92,
      "op": 93,
      "st": 94,
      "test": 95,
      "rsi": 96,
      "0x20": 97,
      "edx": 98,
      "0x5": 99,
      "or": 100,
      "00": 101,
      "je": 102,
      "cmp": 103,
      "r9": 104,
      "dd": 105,
      "eb": 106,
      "r14": 107,
      "xor": 108,
      "0x6": 109,
      "add": 110,
      "jmp": 111,
      "mm": 112,
      "0x7": 113,
      "xmm": 114,
      "ecx": 115,
      "jn": 116,
      "sh": 117,
      "0x10": 118,
      "0x8": 119,
      "ebx": 120,
      "0x30": 121,
      "jne": 122,
      "nop": 123,
      "r15": 124,
      "pu": 125,
      "pop": 126,
      "push": 127,
      "su": 128,
      "sub": 129,
      "r8d": 130,
      "by": 131,
      "byte": 132,
      "ffff": 133,
      "0x18": 134,
      "0x28": 135,
      "0x40": 136,
      "r12": 137,
      "0xa": 138,
      "0x9": 139,
      "r9d": 140,
      "edi": 141,
      "r13": 142,
      "0x38": 143,
      "et": 144,
      "r11": 145,
      "ret": 146,
      "10": 147,
      "0xc": 148,
      "an": 149,
      "and": 150,
      "xmm0": 151,
      "0xb": 152,
      "0x50": 153,
      "ps": 154,
      "si": 155,
      "xmmword": 156,
      "0x48": 157,
      "r10": 158,
      "esi": 159,
      "0xd": 160,
      "0x60": 161,
      "0xf": 162,
      "0x58": 163,
      "0xe": 164,
      "20": 165,
      "ups": 166,
      "movups": 167,
      "0x70": 168,
      "0000": 169,
      "zx": 170,
      "movzx": 171,
      "0x68": 172,
      "ffffffff": 173,
      "r14d": 174,
      "0x14": 175,
      "010": 176,
      "0x11": 177,
      "0x13": 178,
      "r15d": 179,
      "r12d": 180,
      "0x80": 181,
      "0x12": 182,
      "jb": 183,
      "xmm1": 184,
      "0x78": 185,
      "inc": 186,
      "0x15": 187,
      "0x19": 188,
      "0x800": 189,
      "a0": 190,
      "0x1c": 191,
      "r13d": 192,
      "60": 193,
      "0x17": 194,
      "ec": 195,
      "jns": 196,
      "movs": 197,
      "ebp": 198,
      "68": 199,
      "e0": 200,
      "40": 201,
      "30": 202,
      "b0": 203,
      "0x1f": 204,
      "70": 205,
      "50": 206,
      "0x29": 207,
      "ja": 208,
      "cc": 209,
      "a8": 210,
      "90": 211,
      "js": 212,
      "b8": 213,
      "38": 214,
      "e8": 215,
      "78": 216,
      "f8": 217,
      "28": 218,
      "xorps": 219,
      "d0": 220,
      "48": 221,
      "9c": 222,
      "0x21": 223,
      "r11d": 224,
      "r10d": 225,
      "ab": 226,
      "d8": 227,
      "cmov": 228,
      "54": 229,
      "3c": 230,
      "0xffffffff": 231,
      "0x27": 232,
      "0x90": 233,
      "f0": 234,
      "jl": 235,
      "dq": 236,
      "0x88": 237,
      "0x16": 238,
      "58": 239,
      "ac": 240,
      "98": 241,
      "7c": 242,
      "0x24": 243,
      "18": 244,
      "movsx": 245,
      "2c": 246,
      "14": 247,
      "a4": 248,
      "64": 249,
      "b4": 250,
      "6c": 251,
      "24": 252,
      "movdq": 253,
      "f4": 254,
      "74": 255,
      "0x2c": 256,
      "dc": 257,
      "0x8007": 258,
      "e4": 259,
      "fc": 260,
      "bb": 261,
      "1c": 262,
      "bc": 263,
      "0x34": 264,
      "94": 265,
      "jbe": 266,
      "5c": 267,
      "000": 268,
      "34": 269,
      "57": 270,
      "ne": 271,
      "d4": 272,
      "movsxd": 273,
      "0xa0": 274,
      "di": 275,
      "0x98": 276,
      "aa": 277,
      "0x1b": 278,
      "0x39": 279,
      "f1": 280,
      "0x31": 281,
      "0x22": 282,
      "ffffff": 283,
      "mu": 284,
      "mul": 285,
      "0x41": 286,
      "dl": 287,
      "0x3c": 288,
      "cl": 289,
      "0x44": 290,
      "0xa8": 291,
      "0xc0000": 292,
      "66": 293,
      "shr": 294,
      "bl": 295,
      "0x25": 296,
      "0x1d": 297,
      "23": 298,
      "0x1a": 299,
      "jae": 300,
      "fe": 301,
      "shl": 302,
      "0x23": 303,
      "0xb0": 304,
      "jle": 305,
      "0x26": 306,
      "9a": 307,
      "b1": 308,
      "e6": 309,
      "0x37": 310,
      "0x54": 311,
      "e5": 312,
      "fa": 313,
      "22": 314,
      "e1": 315,
      "0x64": 316,
      "e9": 317,
      "e7": 318,
      "e3": 319,
      "imul": 320,
      "63": 321,
      "0x7c": 322,
      "fd": 323,
      "0x47": 324,
      "0x49": 325,
      "0x2a": 326,
      "b2": 327,
      "55": 328,
      "69": 329,
      "6d": 330,
      "e2": 331,
      "5d": 332,
      "movdqu": 333,
      "17": 334,
      "37": 335,
      "67": 336,
      "ck": 337,
      "0x5c": 338,
      "62": 339,
      "lo": 340,
      "lock": 341,
      "f7": 342,
      "dil": 343,
      "0xc0": 344,
      "51": 345,
      "b9": 346,
      "0x32": 347,
      "0x67": 348,
      "f2": 349,
      "0x4c": 350,
      "0xd0": 351,
      "f9": 352,
      "0x3a": 353,
      "61": 354,
      "33": 355,
      "0xf0": 356,
      "59": 357,
      "0x59": 358,
      "fb": 359,
      "r8b": 360,
      "0x2d": 361,
      "0xb8": 362,
      "f3": 363,
      "jg": 364,
      "52": 365,
      "0x51": 366,
      "5a": 367,
      "53": 368,
      "0xc8": 369,
      "movab": 370,
      "movabs": 371,
      "6a": 372,
      "0xe0": 373,
      "b7": 374,
      "0x8c": 375,
      "d7": 376,
      "0xffffffffffffffff": 377,
      "movdqa": 378,
      "b3": 379,
      "0xd8": 380,
      "0x100": 381,
      "ba": 382,
      "0xa3": 383,
      "dec": 384,
      "0x33": 385,
      "0x77": 386,
      "04": 387,
      "21": 388,
      "bd": 389,
      "0x3d": 390,
      "0x61": 391,
      "27": 392,
      "5010": 393,
      "65": 394,
      "0x69": 395,
      "0x110": 396,
      "0x74": 397,
      "29": 398,
      "0x71": 399,
      "0x400": 400,
      "f5": 401,
      "0x57": 402,
      "0x79": 403,
      "2a": 404,
      "neg": 405,
      "0x7f": 406,
      "d1": 407,
      "0x3f": 408,
      "39": 409,
      "d9": 410,
      "4c": 411,
      "3a": 412,
      "0x800700": 413,
      "31": 414,
      "sil": 415,
      "movsd": 416,
      "0x8007000": 417,
      "da": 418,
      "0xa1": 419,
      "0x1e": 420,
      "0x6c": 421,
      "0x36": 422,
      "0x84": 423,
      "sbb": 424,
      "bp": 425,
      "19": 426,
      "0x2f": 427,
      "5e": 428,
      "cmovne": 429,
      "ar": 430,
      "sar": 431,
      "0xe8": 432,
      "6b": 433,
      "5b": 434,
      "d2": 435,
      "0x43": 436,
      "0xac": 437,
      "0x150": 438,
      "44": 439,
      "r9b": 440,
      "0xf8": 441,
      "ee": 442,
      "7a": 443,
      "0xf9": 444,
      "0x8007000e": 445,
      "0x55": 446,
      "f6": 447,
      "2b": 448,
      "ror": 449,
      "0x9c": 450,
      "cmove": 451,
      "0xc00000": 452,
      "99": 453,
      "0x96": 454,
      "0x35": 455,
      "3d": 456,
      "11": 457,
      "0x2b": 458,
      "0x8d": 459,
      "0x120": 460,
      "a7": 461,
      "0x80070057": 462,
      "0xffffff": 463,
      "000000": 464,
      "0x42": 465,
      "cmova": 466,
      "dx": 467,
      "6e": 468,
      "0x6f": 469,
      "0x180": 470,
      "aps": 471,
      "movaps": 472,
      "bx": 473,
      "12": 474,
      "a9": 475,
      "77": 476,
      "0x3b": 477,
      "2010": 478,
      "80": 479,
      "0xa3010": 480,
      "f010": 481,
      "6f": 482,
      "db": 483,
      "32": 484,
      "ef": 485,
      "c0": 486,
      "a1": 487,
      "0x3a0": 488,
      "0x80004": 489,
      "0x8000400": 490,
      "a80": 491,
      "0x4d": 492,
      "0x130": 493,
      "79": 494,
      "r14b": 495,
      "56": 496,
      "0x94": 497,
      "0xa5010": 498,
      "73": 499,
      "0x128": 500,
      "0x118": 501,
      "2d": 502,
      "r15b": 503,
      "a3": 504,
      "r12b": 505,
      "0x5d": 506,
      "0x5f": 507,
      "0x81": 508,
      "0xf9010": 509,
      "bt": 510,
      "be": 511,
      "71": 512,
      "c4": 513,
      "c8": 514,
      "jge": 515,
      "0x140": 516,
      "0xda": 517,
      "25": 518,
      "0x40010": 519,
      "0x2e": 520,
      "0x108": 521,
      "0x738": 522,
      "0xeb": 523,
      "3f": 524,
      "0x7a": 525,
      "xadd": 526,
      "7b": 527,
      "5f": 528,
      "91": 529,
      ":[": 530,
      "0xb4": 531,
      "gs": 532,
      "0xa4": 533,
      "0x5a": 534,
      "0x3a020": 535,
      "0xdd": 536,
      "bpl": 537,
      "d3": 538,
      "0x200": 539,
      "0x66": 540,
      "1010": 541,
      "0x80070000": 542,
      "0x170": 543,
      "r13b": 544,
      "0xea": 545,
      "b6": 546,
      "0x4a": 547,
      "0xffffffffffffff": 548,
      "ch": 549,
      "95": 550,
      "0x298": 551,
      "0xaf010": 552,
      "1a": 553,
      "0x45": 554,
      "0x7b": 555,
      "7f": 556,
      "0x82": 557,
      "0x138": 558,
      "0x160": 559,
      "set": 560,
      "0x72": 561,
      "0x53": 562,
      "xch": 563,
      "0xa120": 564,
      "xchg": 565,
      "0x9d": 566,
      "0x46": 567,
      "1d": 568,
      "0x104": 569,
      "0x56": 570,
      "92": 571,
      "b5": 572,
      "0x7ffffff": 573,
      "0x4f1": 574,
      "0x62": 575,
      "0xff": 576,
      "r15w": 577,
      "0000000": 578,
      "13": 579,
      "15": 580,
      "0x99": 581,
      "7d": 582,
      "0x7387c": 583,
      "0x188": 584,
      "0xc000000": 585,
      "0xbc": 586,
      "0x190": 587,
      "r8w": 588,
      "0x63": 589,
      "72": 590,
      "0x6d": 591,
      "0x158": 592,
      "76": 593,
      "bf": 594,
      "0x102": 595,
      "0xed": 596,
      "0x148": 597,
      "0x27010": 598,
      "0x5a80": 599,
      "0x9a": 600,
      "93": 601,
      "r14w": 602,
      "r12w": 603,
      "xmm2": 604,
      "0x93": 605,
      "0x65": 606,
      "0x1e0": 607,
      "0x1000": 608,
      "no": 609,
      "0x168": 610,
      "not": 611,
      "0xae": 612,
      "9d": 613,
      "0x178": 614,
      "cccc": 615,
      "a2": 616,
      "420": 617,
      "0x198": 618,
      "0x5e": 619,
      "0x7d": 620,
      "0xcc": 621,
      "0x300": 622,
      "0xb3": 623,
      "se": 624,
      "0xf0f8": 625,
      "0x8d54": 626,
      "0x73": 627,
      "0x80004005": 628,
      "0x107": 629,
      "sete": 630,
      "0x4f": 631,
      "0x5b": 632,
      "0x80070": 633,
      "0xc4": 634,
      "ad": 635,
      "0xe2": 636,
      "0xab": 637,
      "0x91": 638,
      "cmpxchg": 639,
      "97": 640,
      "0x87": 641,
      "0x75": 642,
      "setne": 643,
      "0x3e": 644,
      "0xc0000420": 645,
      "0x124": 646,
      "0x1a0": 647,
      "0x4b": 648,
      "0x42010": 649,
      "0x92": 650,
      "0x208": 651,
      "0x135010": 652,
      "0x76": 653,
      "96": 654,
      "3e": 655,
      "0xb9a": 656,
      "0x1c0": 657,
      "0xda10": 658,
      "9b": 659,
      "0x8a": 660,
      "1f": 661,
      "84": 662,
      "26": 663,
      "0x8000": 664,
      "0xb9a78": 665,
      "0xa7": 666,
      "0xb9": 667,
      "xmm6": 668,
      "0x240": 669,
      "36": 670,
      "a6": 671,
      "0x1b0": 672,
      "sd": 673,
      "504": 674,
      "0x1d0": 675,
      "0x7c4": 676,
      "ae": 677,
      "16": 678,
      "d6": 679,
      "0x270": 680,
      "1b": 681,
      "0x250": 682,
      "2e": 683,
      "0x14b": 684,
      "0x4e": 685,
      "0x10e": 686,
      "df": 687,
      "0x260": 688,
      "r9w": 689,
      "1e": 690,
      "0x4f168": 691,
      "0x41010": 692,
      "0x1f0": 693,
      "75": 694,
      "r13w": 695,
      "cc0": 696,
      "de": 697,
      "0x132": 698,
      "0xdc": 699,
      "404": 700,
      "0xec": 701,
      "0xae10": 702,
      "7e": 703,
      "0xffff": 704,
      "0xd4": 705,
      "2f": 706,
      "8c": 707,
      "0x228": 708,
      "a5": 709,
      "0x3e8": 710,
      "0x778": 711,
      "9f": 712,
      "0x86": 713,
      "3b": 714,
      "0xa2": 715,
      "0xe4": 716,
      "0xc000000d": 717,
      "0x9b": 718,
      "0x52": 719,
      "0x6a": 720,
      "35": 721,
      "0x230": 722,
      "0xba": 723,
      "0x85": 724,
      "00000": 725,
      "d5": 726,
      "0x1e8": 727,
      "0x7fffffff": 728,
      "88": 729,
      "0x12c": 730,
      "r10b": 731,
      "9e": 732,
      "0xa6": 733,
      "590": 734,
      "0xb1": 735,
      "bts": 736,
      "0x210": 737,
      "movss": 738,
      "0x3a010": 739,
      "ss": 740,
      "0xb2": 741,
      "aaaa": 742,
      "dc0": 743,
      "0x6b": 744,
      "0x89": 745,
      "0xfc": 746,
      "0x1d8": 747,
      "0xc7": 748,
      "xmm3": 749,
      "0x280": 750,
      "0x123": 751,
      "0x1c8": 752,
      "0x7e": 753,
      "0xfffffffffffffffe": 754,
      "0x1a8": 755,
      "0x134": 756,
      "0x83": 757,
      "0x1b8": 758,
      "0x84ac": 759,
      "0xd9": 760,
      "0xa9": 761,
      "0x121": 762,
      "0x97": 763,
      "488": 764,
      "af": 765,
      "0x1c010": 766,
      "0xa5": 767,
      "0xf4": 768,
      "0x55f4": 769,
      "0xbb1": 770,
      "208": 771,
      "0xcb": 772,
      "0xbb": 773,
      "0x8000ffff": 774,
      "0xbcc0": 775,
      "0xaa": 776,
      "0x95": 777,
      "0x8b": 778,
      "0x6e": 779,
      "0x220": 780,
      "0x150b0": 781,
      "0x969c": 782,
      "btr": 783,
      "0x238": 784,
      "0x258": 785,
      "div": 786,
      "0x8c504": 787,
      "0xc0000017": 788,
      "0x1073c": 789,
      "0x1eb": 790,
      "r11b": 791,
      "0x47010": 792,
      "b80": 793,
      "0x154": 794,
      "0xe2f8": 795,
      "cv": 796,
      "cvt": 797,
      "0x7f1": 798,
      "0xc1": 799,
      "0x96404": 800,
      "0xbb1b4": 801,
      "684": 802,
      "0x218": 803,
      "bc4": 804,
      "0x1f8": 805,
      "0xf3": 806,
      "0xb7": 807,
      "0x268": 808,
      "0xc9": 809,
      "0x14c": 810,
      "0x8f": 811,
      "0x10d": 812,
      "0x14b010": 813,
      "0x2a20": 814,
      "0x11c": 815,
      "0x13c": 816,
      "08": 817,
      "00000000000": 818,
      "0xdb": 819,
      "0x29874": 820,
      "0x114": 821,
      "0x248": 822,
      "0xc5": 823,
      "0xe9": 824,
      "0x3b2": 825,
      "0x101": 826,
      "29c": 827,
      "0x2f0": 828,
      "0x8000000": 829,
      "0x9f": 830,
      "0x330": 831,
      "260": 832,
      "0x13298": 833,
      "0xfd": 834,
      "0xf2010": 835,
      "688": 836,
      "0x2a0": 837,
      "0xcf010": 838,
      "0xc6": 839,
      "0x54590": 840,
      "0x30010": 841,
      "dd0": 842,
      "0x3c0": 843,
      "0x278": 844,
      "0xc3": 845,
      "0x17a": 846,
      "0x2b0": 847,
      "0x818": 848,
      "0xd5": 849,
      "0x1000000": 850,
      "0xd3": 851,
      "0xe1": 852,
      "0x20c": 853,
      "ebc": 854,
      "0xe6": 855,
      "0xef": 856,
      "0x663c": 857,
      "0x11d": 858,
      "0x10c": 859,
      "0x2a8": 860,
      "0x4ec": 861,
      "0xc00": 862,
      "2a0": 863,
      "0xcf": 864,
      "cdq": 865,
      "0x45d": 866,
      "0xf7": 867,
      "0xfffffffe": 868,
      "484": 869,
      "0x101010": 870,
      "0x20a": 871,
      "r10w": 872,
      "0x12b": 873,
      "0x15c": 874,
      "0x10e14": 875,
      "0xbf": 876,
      "0xd6": 877,
      "0x1e04": 878,
      "0x1ff": 879,
      "ffffffffffffff": 880,
      "0xad": 881,
      "10c": 882,
      "0xaf": 883,
      "0x7ffffffe": 884,
      "0x144": 885,
      "0xe7": 886,
      "0xffffffff8": 887,
      "0xac010": 888,
      "0xca": 889,
      "movq": 890,
      "0x308": 891,
      "0x9e": 892,
      "bs": 893,
      "0x1d4": 894,
      "0x10a": 895,
      "280": 896,
      "0x390": 897,
      "0x2d0": 898,
      "0xcd": 899,
      "0xffffffff8000000": 900,
      "0xb5": 901,
      "cmovae": 902,
      "0x8e": 903,
      "0xbd": 904,
      "0xd1": 905,
      "0x17f": 906,
      "680": 907,
      "0x1ab": 908,
      "0xdf": 909,
      "0x290": 910,
      "0x3f0": 911,
      "0x1cb": 912,
      "0x380": 913,
      "0x2e0": 914,
      "0x370": 915,
      "0xc2": 916,
      "0x12460": 917,
      "0xf1": 918,
      "0x2b8": 919,
      "0x11a": 920,
      "0x5dc0": 921,
      "ec0": 922,
      "0x360": 923,
      "ed4": 924,
      "0x2e8": 925,
      "0x3b29c": 926,
      "ce": 927,
      "0x320": 928,
      "0x10b": 929,
      "0x1ac": 930,
      "0x3d8": 931,
      "0xe5": 932,
      "0x3e0": 933,
      "0x206": 934,
      "0xb6": 935,
      "0xd2": 936,
      "50c": 937,
      "0x288": 938,
      "co": 939,
      "0x5bc4": 940,
      "mi": 941,
      "comi": 942,
      "0x310": 943,
      "0x2c0": 944,
      "0x32010": 945,
      "0x117": 946,
      "wa": 947,
      "0xd7": 948,
      "bswa": 949,
      "bswap": 950,
      "0x1212c": 951,
      "0x348": 952,
      "4d": 953,
      "0x9b4": 954,
      "0xe3": 955,
      "0x133": 956,
      "0x3e830": 957,
      "4a": 958,
      "0x410": 959,
      "0xbe": 960,
      "40c": 961,
      "cmovb": 962,
      "1c0": 963,
      "0x14010": 964,
      "0xb3b8": 965,
      "0x1ed": 966,
      "8a": 967,
      "0x350": 968,
      "63e": 969,
      "0xf5": 970,
      "0x1b4": 971,
      "0x328": 972,
      "0x5ca4": 973,
      "0x82ec": 974,
      "0x8007007a": 975,
      "eb0": 976,
      "0x13d": 977,
      "0x29260": 978,
      "eb8": 979,
      "3c8": 980,
      "0x8c5": 981,
      "0xfffff": 982,
      "0x1a4": 983,
      "0x147": 984,
      "64c": 985,
      "0x5de8": 986,
      "0x3e6": 987,
      "0xfa": 988,
      "0x17c": 989,
      "a0c": 990,
      "0x5d8": 991,
      "674": 992,
      "0x164": 993,
      "0x7ffffffffffffff": 994,
      "0x103": 995,
      "6c0": 996,
      "0x375": 997,
      "0x1e9": 998,
      "0x111": 999,
      "0x35c": 1000,
      "0x16c": 1001,
      "0x64010": 1002,
      "0x45da0": 1003,
      "0x1bc": 1004,
      "42": 1005,
      "0x1ec": 1006,
      "0x80004002": 1007,
      "0xa8b0": 1008,
      "0x9c1": 1009,
      "0x224": 1010,
      "380": 1011,
      "0x181": 1012,
      "0x139": 1013,
      "0x3f8": 1014,
      "0x358": 1015,
      "0x1dc": 1016,
      "0x820": 1017,
      "0x1ea": 1018,
      "0x7a0": 1019,
      "0x156": 1020,
      "0x22c": 1021,
      "0x12a": 1022,
      "0x9dd": 1023,
      "37f": 1024,
      "0x10264": 1025,
      "0x2ea": 1026,
      "0x3b0": 1027,
      "0x7e0": 1028,
      "0x778d8": 1029,
      "c3": 1030,
      "0x318": 1031,
      "0x113": 1032,
      "cdqe": 1033,
      "4b": 1034,
      "0xce": 1035,
      "0x1c1": 1036,
      "0x3ea": 1037,
      "0xfb": 1038,
      "0x151": 1039,
      "81": 1040,
      "cb": 1041,
      "ns": 1042,
      "0x142": 1043,
      "0x7ff": 1044,
      "0xfe": 1045,
      "49": 1046,
      "0x143": 1047,
      "9c0": 1048,
      "0x4ece0": 1049,
      "0x2fc": 1050,
      "0x11a80": 1051,
      "0xc0000095": 1052,
      "0x823": 1053,
      "0x184": 1054,
      "0x34c": 1055,
      "0x10000000": 1056,
      "0x2d8": 1057,
      "0x19c": 1058,
      "0x112": 1059,
      "cmovns": 1060,
      "ac8": 1061,
      "0x400000000000": 1062,
      "0x13a": 1063,
      "0x36010": 1064,
      "0x129": 1065,
      "0x1b3": 1066,
      "0x3d0": 1067,
      "0x4db0": 1068,
      "0x2f8": 1069,
      "0x149": 1070,
      "cccccccc": 1071,
      "45": 1072,
      "4f": 1073,
      "0x338": 1074,
      "c6": 1075,
      "0x37c": 1076,
      "0x157": 1077,
      "0x266": 1078,
      "0x3ff": 1079,
      "41": 1080,
      "4e": 1081,
      "0x7b4": 1082,
      "0x109": 1083,
      "0x18c": 1084,
      "0x234": 1085,
      "0x16a": 1086,
      "comisd": 1087,
      "0x418": 1088,
      "0x11010": 1089,
      "c9": 1090,
      "0x402a0": 1091,
      "216": 1092,
      "46": 1093,
      "83": 1094,
      "0x1bb": 1095,
      "0x3dd": 1096,
      "0x141": 1097,
      "ccd": 1098,
      "0x217": 1099,
      "0x254": 1100,
      "0x25c": 1101,
      "0x119": 1102,
      "0x2c8": 1103,
      "0x3a8": 1104,
      "0xee0": 1105,
      "0xc0000001": 1106,
      "0x778c4": 1107,
      "0x1e4": 1108,
      "0x340": 1109,
      "0xde": 1110,
      "480": 1111,
      "0x1e6": 1112,
      "14c": 1113,
      "0x470": 1114,
      "89": 1115,
      "0x126": 1116,
      "0x2b9": 1117,
      "r11w": 1118,
      "0x1c4": 1119,
      "0x23c": 1120,
      "444": 1121,
      "0x182": 1122,
      "0x22d0": 1123,
      "85": 1124,
      "0x174": 1125,
      "0x460": 1126,
      "0x127": 1127,
      "0x167": 1128,
      "980": 1129,
      "0x4129c": 1130,
      "0x1dd": 1131,
      "0x4830": 1132,
      "0x32a8": 1133,
      "0x430": 1134,
      "0x18a": 1135,
      "0x153": 1136,
      "0xf2": 1137,
      "580": 1138,
      "cd": 1139,
      "0xffffffff80000002": 1140,
      "0x29c": 1141,
      "0x24c": 1142,
      "2c0": 1143,
      "47": 1144,
      "c7": 1145,
      "0x15a": 1146,
      "0x1c3": 1147,
      "0x261": 1148,
      "0x26c": 1149,
      "0x11b": 1150,
      "0xd860": 1151,
      "0x3e4": 1152,
      "0x102ac": 1153,
      "0x3cc": 1154,
      "0x378": 1155,
      "0x152": 1156,
      "ca": 1157,
      "0x2f4": 1158,
      "0x4fa": 1159,
      "54a": 1160,
      "0xfffffffd": 1161,
      "0x388": 1162,
      "0x1b9": 1163,
      "0xfffff63e": 1164,
      "0x7a8": 1165,
      "0x131": 1166,
      "cmovl": 1167,
      "0x25010": 1168,
      "c5": 1169,
      "43": 1170,
      "0x105": 1171,
      "0x194": 1172,
      "cmovg": 1173,
      "0x1b5": 1174,
      "0x2ff": 1175,
      "ea0": 1176,
      "0x314": 1177,
      "0x322": 1178,
      "0x7fc": 1179,
      "0x307": 1180,
      "0x284": 1181,
      "0x163": 1182,
      "0x3c8": 1183,
      "0xab69": 1184,
      "0x3ec": 1185,
      "0x1e3": 1186,
      "0x2ed": 1187,
      "0x3fc": 1188,
      "5c0": 1189,
      "0xeaf8": 1190,
      "0x159": 1191,
      "82": 1192,
      "0x14a": 1193,
      "0x199": 1194,
      "dc4": 1195,
      "0x464": 1196,
      "0x14d": 1197,
      "0x29010": 1198,
      "0x136": 1199,
      "0x162": 1200,
      "6666": 1201,
      "0x375b8": 1202,
      "004": 1203,
      "0xce0": 1204,
      "0x15b": 1205,
      "384": 1206,
      "7c0": 1207,
      "1c4": 1208,
      "0x368": 1209,
      "0x420": 1210,
      "psr": 1211,
      "0x21c": 1212,
      "0x169": 1213,
      "0x125": 1214,
      "0x223": 1215,
      "0x4124": 1216,
      "0x1a1": 1217,
      "0x20019": 1218,
      "0xe010": 1219,
      "0x25f": 1220,
      "0x7f11": 1221,
      "0x20a9c": 1222,
      "cf": 1223,
      "0x116": 1224,
      "0x15d": 1225,
      "ldq": 1226,
      "0x354": 1227,
      "308": 1228,
      "0x1f4": 1229,
      "908": 1230,
      "aaaaaaaa": 1231,
      "psrldq": 1232,
      "c1": 1233,
      "c2": 1234,
      "0x197": 1235,
      "0x1c9": 1236,
      "0x17a78": 1237,
      "0x12a0": 1238,
      "a44": 1239,
      "e44": 1240,
      "movd": 1241,
      "0x183": 1242,
      "2c8": 1243,
      "0x1e1": 1244,
      "0x4e0": 1245,
      "0x187": 1246,
      "0x274": 1247,
      "0x2cc": 1248,
      "0x4d8": 1249,
      "si2": 1250,
      "ec4": 1251,
      "cvtsi2": 1252,
      "0x7f1137f": 1253,
      "0x264": 1254,
      "0x2e4": 1255,
      "0x1cc": 1256,
      "0x1e2": 1257,
      "0x115": 1258,
      "0x294": 1259,
      "288": 1260,
      "0x4e8": 1261,
      "0x24f": 1262,
      "1c8": 1263,
      "0x55a4": 1264,
      "23c": 1265,
      "0x357": 1266,
      "0x1aa": 1267,
      "0x478": 1268,
      "0x7688": 1269,
      "0x16d": 1270,
      "fc4": 1271,
      "0x23d": 1272,
      "0x1e5": 1273,
      "0x480": 1274,
      "409": 1275,
      "0x2ac": 1276,
      "0x33c": 1277,
      "0x106": 1278,
      "0x281": 1279,
      "0x4f8": 1280,
      "fa2": 1281,
      "ae0": 1282,
      "0x257": 1283,
      "0x2b3": 1284,
      "0x334": 1285,
      "f0c": 1286,
      "8d": 1287,
      "cmovs": 1288,
      "0x401": 1289,
      "0x27c": 1290,
      "0x269": 1291,
      "0x3eb": 1292,
      "0x204": 1293,
      "8e": 1294,
      "0x2b4": 1295,
      "0xf6": 1296,
      "284": 1297,
      "0xef58": 1298,
      "0x2ab": 1299,
      "ed0": 1300,
      "0x6d1": 1301,
      "0x28c": 1302,
      "0x1a7": 1303,
      "1500": 1304,
      "0x39c": 1305,
      "0x31c": 1306,
      "0x438": 1307,
      "0x458": 1308,
      "0x137": 1309,
      "0x179": 1310,
      "0x200000": 1311,
      "0x510": 1312,
      "0x304": 1313,
      "0x146": 1314,
      "d44": 1315,
      "e90": 1316,
      "0x20b": 1317,
      "0x80000": 1318,
      "ac0": 1319,
      "0x2c90": 1320,
      "86": 1321,
      "ep": 1322,
      "rep": 1323,
      "0x2a4": 1324,
      "0x21a": 1325,
      "6d8": 1326,
      "0x1e7": 1327,
      "0x367": 1328,
      "0x4f0": 1329,
      "0x189": 1330,
      "0x12d": 1331,
      "0x122": 1332,
      "0x17d": 1333,
      "68c": 1334,
      "0x161": 1335,
      "0x80070216": 1336,
      "210": 1337,
      "8f": 1338,
      "0x366": 1339,
      "0x1d1": 1340,
      "0x10e30": 1341,
      "0x5a4": 1342,
      "0x177": 1343,
      "0x391": 1344,
      "0x5a0": 1345,
      "0x80000000": 1346,
      "e38": 1347,
      "0x2e9": 1348,
      "0x764": 1349,
      "0x10f": 1350,
      "304": 1351,
      "0x10d3c": 1352,
      "5a0": 1353,
      "8b": 1354,
      "0x2bb": 1355,
      "0x468": 1356,
      "0x578": 1357,
      "87": 1358,
      "0x209": 1359,
      "98c": 1360,
      "0x324": 1361,
      "0x12f": 1362,
      "b88": 1363,
      "5c4": 1364,
      "0x3da": 1365,
      "0x3b8": 1366,
      "0x398": 1367,
      "sto": 1368,
      "b8c": 1369,
      "0x7260": 1370,
      "0x3a4": 1371,
      "0x4b0": 1372,
      "0x2000": 1373,
      "0x5f2": 1374,
      "0x11f": 1375,
      "0x780": 1376,
      "401": 1377,
      "ab4": 1378,
      "0x12320": 1379,
      "0x3ed": 1380,
      "0x450": 1381,
      "0x520": 1382,
      "0x19d": 1383,
      "stos": 1384,
      "0x394": 1385,
      "0x810": 1386,
      "0x18d": 1387,
      "0x382": 1388,
      "0x193": 1389,
      "0x244": 1390,
      "0x8c56c": 1391,
      "0x13b": 1392,
      "0x171": 1393,
      "0xffffffffffffffe0": 1394,
      "0x17f1c": 1395,
      "0x3bc": 1396,
      "0x490": 1397,
      "0x20d": 1398,
      "0x13f": 1399,
      "0x80048": 1400,
      "0x1fa": 1401,
      "9c4": 1402,
      "144": 1403,
      "0x1a9": 1404,
      "0x2bc": 1405,
      "7363": 1406,
      "225": 1407,
      "0xe06d": 1408,
      "ccccccd": 1409,
      "0x8239c": 1410,
      "ec8": 1411,
      "cmovo": 1412,
      "f44": 1413,
      "0x3b24": 1414,
      "b70": 1415,
      "0xd1500": 1416,
      "608": 1417,
      "30c": 1418,
      "f80": 1419,
      "0x27d": 1420,
      "0x221": 1421,
      "0x5c0": 1422,
      "cvtt": 1423,
      "0xe06d7363": 1424,
      "0x498": 1425,
      "0x598": 1426,
      "0x137f": 1427,
      "23e": 1428,
      "ymm": 1429,
      "0x4d0": 1430,
      "3c0": 1431,
      "6c8": 1432,
      "139": 1433,
      "0x1f7": 1434,
      "0x26f": 1435,
      "0x5d8c": 1436,
      "0x2eb": 1437,
      "0x32c": 1438,
      "0x374": 1439,
      "0x9e7": 1440,
      "0x17e": 1441,
      "d80": 1442,
      "644": 1443,
      "0x1ba": 1444,
      "0x2ec": 1445,
      "a04": 1446,
      "cmovbe": 1447,
      "0x365": 1448,
      "0x440": 1449,
      "0x87b": 1450,
      "fc0": 1451,
      "0x2a9": 1452,
      "0xc00000e5": 1453,
      "0x968": 1454,
      "0x19010": 1455,
      "0x1c7": 1456,
      "708": 1457,
      "0x299": 1458,
      "0x690": 1459,
      "0x383": 1460,
      "0x191": 1461,
      "0x3d4": 1462,
      "0x548": 1463,
      "7c4": 1464,
      "0xf3208": 1465,
      "0x500": 1466,
      "0x540": 1467,
      "0x10d4": 1468,
      "0x850": 1469,
      "0x155": 1470,
      "0x42f0": 1471,
      "0x2d4": 1472,
      "0xb62": 1473,
      "0x135": 1474,
      "0x214": 1475,
      "0x259": 1476,
      "0x1a6": 1477,
      "0x448": 1478,
      "0x4dc": 1479,
      "addss": 1480,
      "0x38c": 1481,
      "e80": 1482,
      "0x1a3": 1483,
      "0x4c8": 1484,
      "0xb424": 1485,
      "0x680": 1486,
      "9ce": 1487,
      "0x2c4": 1488,
      "0x22b": 1489,
      "0x2e1": 1490,
      "0x3dc": 1491,
      "0x333": 1492,
      "0x145": 1493,
      "0x17b": 1494,
      "0x1f1": 1495,
      "0x1fc": 1496,
      "784": 1497,
      "0x311": 1498,
      "0x7b470": 1499,
      "0x2dd": 1500,
      "0x361": 1501,
      "ed8": 1502,
      "0xb79": 1503,
      "0x196": 1504,
      "78c": 1505,
      "74c": 1506,
      "fffffff": 1507,
      "0x25a": 1508,
      "0xed8": 1509,
      "0x11df4": 1510,
      "eb4": 1511,
      "0x870": 1512,
      "0x408": 1513,
      "0x249": 1514,
      "0x1b1": 1515,
      "0x227": 1516,
      "0x1d3": 1517,
      "0x9910c": 1518,
      "0x2b1": 1519,
      "0x2e7": 1520,
      "0x207": 1521,
      "0x1cd": 1522,
      "780": 1523,
      "0x219": 1524,
      "0x1bd": 1525,
      "0x25b": 1526,
      "0x237": 1527,
      "0x80004001": 1528,
      "0x5ae8": 1529,
      "0x2f2": 1530,
      "0x36c": 1531,
      "0x362": 1532,
      "0x8dc": 1533,
      "0x605e": 1534,
      "0xf684": 1535,
      "0x241": 1536,
      "344": 1537,
      "0x3b9": 1538,
      "0x538": 1539,
      "0xa444": 1540,
      "588": 1541,
      "24c": 1542,
      "0xebb": 1543,
      "0x2e6": 1544,
      "0x3e3": 1545,
      "b44": 1546,
      "0x1d7": 1547,
      "0x80070002": 1548,
      "0x9b4b8": 1549,
      "0x2dd0": 1550,
      "0x3ac": 1551,
      "0x3f4": 1552,
      "edc": 1553,
      "0x192": 1554,
      "408": 1555,
      "70c": 1556,
      "184": 1557,
      "0x2f3": 1558,
      "0x35d": 1559,
      "0x4a0": 1560,
      "0x1cf0": 1561,
      "0x21d": 1562,
      "0x16e": 1563,
      "0x1d9": 1564,
      "0x1db": 1565,
      "0x236": 1566,
      "b1b": 1567,
      "0x549": 1568,
      "0x2b2": 1569,
      "0x3fe": 1570,
      "0x5e0": 1571,
      "0x9b2": 1572,
      "0x385": 1573,
      "0x14f": 1574,
      "0x1c04": 1575,
      "28c": 1576,
      "0x229": 1577,
      "0x4a8": 1578,
      "e4c": 1579,
      "0x1ad": 1580,
      "fbe": 1581,
      "508": 1582,
      "0x297": 1583,
      "dc8": 1584,
      "0x20628": 1585,
      "0x2e5": 1586,
      "0x2b7": 1587,
      "0x3f2": 1588,
      "0x434": 1589,
      "ff4": 1590,
      "0x92b": 1591,
      "e8c": 1592,
      "0x1df": 1593,
      "0x373": 1594,
      "0x577": 1595,
      "0x2aa": 1596,
      "0x2f9": 1597,
      "0x364": 1598,
      "0x600": 1599,
      "0x185": 1600,
      "0x313": 1601,
      "0x3e1": 1602,
      "0x454": 1603,
      "0x6f5": 1604,
      "0x40674": 1605,
      "0x13f8": 1606,
      "0x12e": 1607,
      "0x1f3": 1608,
      "704": 1609,
      "0x231": 1610,
      "0xc740": 1611,
      "0x2f1": 1612,
      "0x2ba": 1613,
      "0x3b1": 1614,
      "0x36a": 1615,
      "0x49c": 1616,
      "0xc12": 1617,
      "0x14e": 1618,
      "0x11e": 1619,
      "0x1c6": 1620,
      "0x1f000": 1621,
      "0x165": 1622,
      "98e": 1623,
      "0x267": 1624,
      "0xd820": 1625,
      "0x134e4": 1626,
      "0x3f1": 1627,
      "0x47c": 1628,
      "0x5b0": 1629,
      "0x18b": 1630,
      "0x404": 1631,
      "244": 1632,
      "0x22a": 1633,
      "0x2a3": 1634,
      "0x80000005": 1635,
      "0x2e2": 1636,
      "0x351": 1637,
      "0x18f": 1638,
      "0x409": 1639,
      "0x584c": 1640,
      "0x19a": 1641,
      "6c4": 1642,
      "0x4c0": 1643,
      "0x353": 1644,
      "0x301": 1645,
      "0x309": 1646,
      "0x13d0": 1647,
      "0x1280": 1648,
      "0x173": 1649,
      "0x1b7": 1650,
      "0x251": 1651,
      "0xfffffff8": 1652,
      "0x298dc": 1653,
      "5d0": 1654,
      "0x2dc": 1655,
      "0x2fa": 1656,
      "0x363": 1657,
      "0x4d9": 1658,
      "0x262": 1659,
      "51f": 1660,
      "0xabf8": 1661,
      "0x2e3": 1662,
      "0x6ed": 1663,
      "0x868": 1664,
      "0x24b": 1665,
      "188": 1666,
      "0x10000": 1667,
      "eac": 1668,
      "0xb28": 1669,
      "0x19b": 1670,
      "658": 1671,
      "0x384": 1672,
      "0x195": 1673,
      "0x1c2": 1674,
      "54c": 1675,
      "0x279": 1676,
      "f08": 1677,
      "b17": 1678,
      "0xed8f1": 1679,
      "0x201": 1680,
      "0x7b0": 1681,
      "0x211": 1682,
      "0x1b2": 1683,
      "0x31a": 1684,
      "172": 1685,
      "0x7ffffffffffffffe": 1686,
      "ff0": 1687,
      "0x203": 1688,
      "0x574": 1689,
      "0x718": 1690,
      "0x186": 1691,
      "0x9e6": 1692,
      "0x29b": 1693,
      "90c": 1694,
      "0x1d6": 1695,
      "0x1da": 1696,
      "0x1eb90": 1697,
      "ff8": 1698,
      "0x5488": 1699,
      "ccc": 1700,
      "0x1a5": 1701,
      "0x26a": 1702,
      "sd2": 1703,
      "0x323": 1704,
      "0x414": 1705,
      "0x7f0": 1706,
      "20c": 1707,
      "984": 1708,
      "0x24a": 1709,
      "bc8": 1710,
      "0x222": 1711,
      "0x226": 1712,
      "0x253": 1713,
      "0x233": 1714,
      "0x4f1b8": 1715,
      "0xbf50": 1716,
      "cvttsd2": 1717,
      "cvttsd2si": 1718,
      "0x3e2": 1719,
      "0x428": 1720,
      "0x86d": 1721,
      "0x1cf": 1722,
      "0x1f9": 1723,
      "0x16b": 1724,
      "2c4": 1725,
      "0x477": 1726,
      "0xa3f4": 1727,
      "0xffffff3f": 1728,
      "0x8000000000000000": 1729,
      "0x2fd": 1730,
      "0x3b4": 1731,
      "0x46d": 1732,
      "0x5d0": 1733,
      "108": 1734,
      "0x15f": 1735,
      "0x273": 1736,
      "0x243": 1737,
      "0x1a2": 1738,
      "0x2fb": 1739,
      "0x3e7": 1740,
      "0x3fd": 1741,
      "0x4a4": 1742,
      "0x462": 1743,
      "dd8": 1744,
      "0x7d0": 1745,
      "0x403": 1746,
      "0x1f2": 1747,
      "e87": 1748,
      "0x166": 1749,
      "0x239": 1750,
      "0x369": 1751,
      "0x35a": 1752,
      "0x405": 1753,
      "0x950": 1754,
      "0x7c0": 1755,
      "5555": 1756,
      "0xc0000023": 1757,
      "0x466": 1758,
      "0x45010": 1759,
      "0x5b4": 1760,
      "xmm7": 1761,
      "0x287": 1762,
      "0x580": 1763,
      "9c8": 1764,
      "0x1bb0": 1765,
      "0x3c4": 1766,
      "5d2": 1767,
      "0xa010": 1768,
      "0x9ff": 1769,
      "0xbb2": 1770,
      "0x172": 1771,
      "0x80004003": 1772,
      "520": 1773,
      "0x337": 1774,
      "0x42c": 1775,
      "0x494": 1776,
      "0x423": 1777,
      "ddc": 1778,
      "0x7f8": 1779,
      "0x8d0": 1780,
      "0x283": 1781,
      "0xd28": 1782,
      "a88": 1783,
      "38c": 1784,
      "0x2c1": 1785,
      "0x200000000000": 1786,
      "0x1fb": 1787,
      "0x22d": 1788,
      "9a9": 1789,
      "f60": 1790,
      "0x2f7": 1791,
      "0x76c": 1792,
      "0x7b7": 1793,
      "0x8dd": 1794,
      "0x9cc": 1795,
      "204": 1796,
      "0x13e": 1797,
      "0x1fa4": 1798,
      "489": 1799,
      "0x3fb": 1800,
      "0x474": 1801,
      "0xccccccccc": 1802,
      "58c": 1803,
      "0xa88": 1804,
      "0xcccccccccccccccd": 1805,
      "0x4b8": 1806,
      "0x630": 1807,
      "0x6cc": 1808,
      "0x387": 1809,
      "0xb10": 1810,
      "0x176": 1811,
      "e84": 1812,
      "544": 1813,
      "249": 1814,
      "0x3aa": 1815,
      "0x3e9": 1816,
      "0x798": 1817,
      "e04": 1818,
      "e88": 1819,
      "0x246": 1820,
      "0x247": 1821,
      "0x344": 1822,
      "0x2af": 1823,
      "0x205": 1824,
      "0x567": 1825,
      "0x7a4": 1826,
      "0xaf8": 1827,
      "0xd14": 1828,
      "0x175": 1829,
      "ecc": 1830,
      "0x212": 1831,
      "18c": 1832,
      "0x1d5": 1833,
      "0x1dcc": 1834,
      "0x7a86c": 1835,
      "0x3ab": 1836,
      "0x5b8": 1837,
      "0x30c": 1838,
      "0x40a": 1839,
      "0xbb0": 1840,
      "0xeec0": 1841,
      "0x29a": 1842,
      "788": 1843,
      "0x71bc": 1844,
      "0x2bd": 1845,
      "0x202": 1846,
      "e08": 1847,
      "48c": 1848,
      "3cf": 1849,
      "747": 1850,
      "0x252": 1851,
      "4c0": 1852,
      "idiv": 1853,
      "0x359": 1854,
      "0x6e8": 1855,
      "0x962": 1856,
      "0xc29": 1857,
      "0x1ca": 1858,
      "bc0": 1859,
      "0xfffffffb": 1860,
      "e00": 1861,
      "0x790": 1862,
      "0xa14": 1863,
      "0x1520": 1864,
      "0x216": 1865,
      "d4c": 1866,
      "0x232": 1867,
      "0x8000000b": 1868,
      "0xfde9": 1869,
      "0x3e5": 1870,
      "0x3fffffff": 1871,
      "008": 1872,
      "0x698": 1873,
      "0x890": 1874,
      "180": 1875,
      "bbc": 1876,
      "0x397": 1877,
      "0x424": 1878,
      "0x530": 1879,
      "0x550": 1880,
      "0x610": 1881,
      "0x620": 1882,
      "0x6b8": 1883,
      "0x786d8": 1884,
      "9c2": 1885,
      "0x271": 1886,
      "0x1b6": 1887,
      "mulss": 1888,
      "0x9d488": 1889,
      "0xc12b4": 1890,
      "0x3bb": 1891,
      "0x355": 1892,
      "0x352": 1893,
      "0x3b3": 1894,
      "0x463": 1895,
      "0x560": 1896,
      "0x590": 1897,
      "0x7ed": 1898,
      "0x7b8": 1899,
      "b0c": 1900,
      "0x213": 1901,
      "d88": 1902,
      "fc8": 1903,
      "0x1d2": 1904,
      "0x2a7": 1905,
      "0x3d20": 1906,
      "0x770": 1907,
      "0x28f": 1908,
      "0x920": 1909,
      "0x29d": 1910,
      "f88": 1911,
      "0x4fae0": 1912,
      "0x6d128": 1913,
      "0x3bd": 1914,
      "0x57c": 1915,
      "0x7b3": 1916,
      "0x8a0": 1917,
      "0x95b": 1918,
      "0xbaa": 1919,
      "f04": 1920,
      "0x880": 1921,
      "a4c": 1922,
      "f4c": 1923,
      "0x2d3": 1924,
      "cmovge": 1925,
      "0xa90": 1926,
      "0xd00000": 1927,
      "b84": 1928,
      "22e": 1929,
      "0x2d1": 1930,
      "0x10a40": 1931,
      "cmovle": 1932,
      "0x28d": 1933,
      "0x406": 1934,
      "0x40c": 1935,
      "0xa50": 1936,
      "104": 1937,
      "988": 1938,
      "246": 1939,
      "bbd": 1940,
      "0x31b": 1941,
      "e6a": 1942,
      "aab": 1943,
      "ef0": 1944,
      "0x3b7": 1945,
      "0x558": 1946,
      "0x648": 1947,
      "2080": 1948,
      "0x1c5": 1949,
      "a84": 1950,
      "a8c": 1951,
      "e52": 1952,
      "0x332": 1953,
      "0x3f3": 1954,
      "0x4cc": 1955,
      "0x41c": 1956,
      "0x4e6": 1957,
      "0x421": 1958,
      "0x7cc": 1959,
      "0x7d7": 1960,
      "0xa20": 1961,
      "3c4": 1962,
      "0x1ba0c": 1963,
      "0x5468": 1964,
      "0x87b2080": 1965,
      "f2c": 1966,
      "fff": 1967,
      "0x63c": 1968,
      "0x305": 1969,
      "0x28b": 1970,
      "0x88ae0": 1971,
      "0x2c3": 1972,
      "57f": 1973,
      "0x23a": 1974,
      "0x263": 1975,
      "53e": 1976,
      "0x6128": 1977,
      "0x12a0e8": 1978,
      "stosb": 1979,
      "0x6f518": 1980,
      "0x2fe": 1981,
      "ea8": 1982,
      "0x5ab": 1983,
      "0x531": 1984,
      "0x700": 1985,
      "0x389": 1986,
      "0x272": 1987,
      "0x27b": 1988,
      "0x393": 1989,
      "0x7fffffffffffffff": 1990,
      "0x83a": 1991,
      "0xee": 1992,
      "0x215": 1993,
      "0x2a1": 1994,
      "f00": 1995,
      "ea4": 1996,
      "0x3f9": 1997,
      "0x4fc": 1998,
      "0x8b8": 1999,
      "233": 2000,
      "e39": 2001,
      "0x2a5": 2002,
      "0x573c8": 2003,
      "0x6c0": 2004,
      "e64": 2005,
      "0x554": 2006,
      "0x660": 2007,
      "0xc010": 2008,
      "e0c": 2009,
      "f8c": 2010,
      "243": 2011,
      "0x317": 2012,
      "0x3d2": 2013,
      "0x767": 2014,
      "0x303": 2015,
      "0x9d8": 2016,
      "0x9fc": 2017,
      "0xd00": 2018,
      "0x1f6": 2019,
      "54f": 2020,
      "185": 2021,
      "0x417": 2022,
      "0xc0000409": 2023,
      "232": 2024,
      "0x32d": 2025,
      "0x9debc": 2026,
      "0xed30": 2027,
      "0x65dc": 2028,
      "e50": 2029,
      "0x760": 2030,
      "0x830": 2031,
      "0x9e0": 2032,
      "0x958": 2033,
      "0x9db": 2034,
      "0x19f": 2035,
      "605e": 2036,
      "a83": 2037,
      "0x2c9": 2038,
      "0x2cd": 2039,
      "mulsd": 2040,
      "0x411": 2041,
      "0x1af": 2042,
      "0x71b70": 2043,
      "0xacd0": 2044,
      "0x1c048": 2045,
      "0x6b0": 2046,
      "0x30208": 2047,
      "0xa00": 2048,
      "0x9b8": 2049,
      "d08": 2050,
      "0x245": 2051,
      "0x26d": 2052,
      "0x479c": 2053,
      "f76": 2054,
      "0x738c": 2055,
      "0xb62a0": 2056,
      "0x4bb": 2057,
      "0x451": 2058,
      "0x56d": 2059,
      "0x768": 2060,
      "0x740": 2061,
      "0x289": 2062,
      "0x977": 2063,
      "0x13b80": 2064,
      "0x277": 2065,
      "0x343": 2066,
      "e79": 2067,
      "0x327": 2068,
      "0xf04": 2069,
      "0x1ab4": 2070,
      "0x7e018": 2071,
      "1ec": 2072,
      "0x4000": 2073,
      "0x49a": 2074,
      "0x655": 2075,
      "addsd": 2076,
      "0x488": 2077,
      "604": 2078,
      "0x1fd": 2079,
      "388": 2080,
      "7c1": 2081,
      "94c": 2082,
      "0x23b": 2083,
      "0x5654": 2084,
      "0x25fec": 2085,
      "0xebb74": 2086,
      "0x3d7": 2087,
      "0x46c": 2088,
      "0x4b9": 2089,
      "0x433": 2090,
      "0xb99": 2091,
      "0x13010": 2092,
      "aca": 2093,
      "ace": 2094,
      "0x349": 2095,
      "f7a": 2096,
      "0x8c4": 2097,
      "0x634": 2098,
      "0x860": 2099,
      "0x1894": 2100,
      "0x242": 2101,
      "14a": 2102,
      "5c8": 2103,
      "23d": 2104,
      "fbf": 2105,
      "0x2d2": 2106,
      "0x3530": 2107,
      "0x364c": 2108,
      "0x4ea": 2109,
      "0x4d4": 2110,
      "0x427": 2111,
      "0x3084": 2112,
      "0x1f5": 2113,
      "0x315": 2114,
      "0x256": 2115,
      "0x329": 2116,
      "0x8007029c": 2117,
      "0x437": 2118,
      "0x528": 2119,
      "0x518": 2120,
      "0x56c": 2121,
      "dd4": 2122,
      "0x6e5": 2123,
      "0x77c": 2124,
      "b08": 2125,
      "0x2cb": 2126,
      "577": 2127,
      "0x412": 2128,
      "667": 2129,
      "0x265": 2130,
      "373": 2131,
      "0xfffffffc": 2132,
      "0x800704": 2133,
      "aaaaaaaaaaaa": 2134,
      "cvtsi2sd": 2135,
      "f98": 2136,
      "0x43c": 2137,
      "0x469": 2138,
      "0x42a": 2139,
      "0x5f0": 2140,
      "0xa30": 2141,
      "0x900": 2142,
      "0x19e": 2143,
      "9c5": 2144,
      "586": 2145,
      "0x379": 2146,
      "0x3a1c": 2147,
      "0xbbac": 2148,
      "0x156a0": 2149,
      "fa4": 2150,
      "0x3fa": 2151,
      "0x5ed": 2152,
      "0x6a0": 2153,
      "0x640": 2154,
      "0x670": 2155,
      "0x658": 2156,
      "0x729": 2157,
      "0x840": 2158,
      "0xd1d": 2159,
      "ecb": 2160,
      "501": 2161,
      "0x291": 2162,
      "902": 2163,
      "0x275": 2164,
      "0x34b": 2165,
      "0x3c9": 2166,
      "fd5": 2167,
      "f26": 2168,
      "0x33a": 2169,
      "0xbc10": 2170,
      "0x4e1": 2171,
      "0x4e3": 2172,
      "ffc": 2173,
      "0x570": 2174,
      "0x6e0": 2175,
      "0x653": 2176,
      "0x63d": 2177,
      "0x954": 2178,
      "0xb2a": 2179,
      "0xe00": 2180,
      "605": 2181,
      "247": 2182,
      "744": 2183,
      "0x2c7": 2184,
      "0x225": 2185,
      "f77": 2186,
      "d7b": 2187,
      "0x4d6": 2188,
      "0x36d": 2189,
      "0x566": 2190,
      "0x664": 2191,
      "0x710": 2192,
      "0x72c": 2193,
      "0x8f4": 2194,
      "0x15e": 2195,
      "60d": 2196,
      "ab9": 2197,
      "6c2": 2198,
      "5c3": 2199,
      "0x235": 2200,
      "e3f": 2201,
      "5a5": 2202,
      "0x336": 2203,
      "0x6f0": 2204,
      "0x7ffff": 2205,
      "0x7d8": 2206,
      "0x30d": 2207,
      "0x9000": 2208,
      "0x94c": 2209,
      "702": 2210,
      "abb": 2211,
      "ac4": 2212,
      "982": 2213,
      "9a1": 2214,
      "0x32b": 2215,
      "0x4e4": 2216,
      "00d": 2217,
      "0x6d0": 2218,
      "0x73a": 2219,
      "0x87c": 2220,
      "0xce4": 2221,
      "0x14a1": 2222,
      "0x1240": 2223,
      "481": 2224,
      "b4c": 2225,
      "0x2ca": 2226,
      "e73": 2227,
      "6d9": 2228,
      "0x3f6": 2229,
      "0x1cb00": 2230,
      "cvtsi2ss": 2231,
      "0x3f7": 2232,
      "0x457": 2233,
      "ffd": 2234,
      "0x539": 2235,
      "eb7": 2236,
      "eb9": 2237,
      "0x814": 2238,
      "0x800000": 2239,
      "0x918": 2240,
      "904": 2241,
      "f84": 2242,
      "285": 2243,
      "487": 2244,
      "584": 2245,
      "0x24d": 2246,
      "2c1": 2247,
      "946": 2248,
      "34b": 2249,
      "632": 2250,
      "0x32a": 2251,
      "fba": 2252,
      "0x82384": 2253,
      "0x76460": 2254,
      "0x9b210": 2255,
      "0x6dd": 2256,
      "0x674": 2257,
      "0x295": 2258,
      "782": 2259,
      "547": 2260,
      "3c9": 2261,
      "2ce": 2262,
      "0x25d": 2263,
      "9a6": 2264,
      "b1e": 2265,
      "e6d": 2266,
      "0x321": 2267,
      "6a2": 2268,
      "0x4bc": 2269,
      "0x4fd": 2270,
      "0x20f": 2271,
      "0x5e8": 2272,
      "0x638": 2273,
      "0x720": 2274,
      "0x858": 2275,
      "0x81c": 2276,
      "0x18e": 2277,
      "0x296": 2278,
      "24a": 2279,
      "24b": 2280,
      "0x347": 2281,
      "34c": 2282,
      "0x392": 2283,
      "239": 2284,
      "0x3790": 2285,
      "176": 2286,
      "675": 2287,
      "0x339": 2288,
      "0x14c00": 2289,
      "0x3e694": 2290,
      "0x1f0003": 2291,
      "cq": 2292,
      "ea6": 2293,
      "0x455": 2294,
      "0x4d7": 2295,
      "0x429": 2296,
      "0x20010": 2297,
      "0x568": 2298,
      "0x5bb": 2299,
      "0x7ac": 2300,
      "abc": 2301,
      "abd": 2302,
      "3ca": 2303,
      "0x881": 2304,
      "944": 2305,
      "94b": 2306,
      "fee": 2307,
      "0x26b": 2308,
      "e1e": 2309,
      "59b": 2310,
      "5af": 2311,
      "cqo": 2312,
      "0x4a7": 2313,
      "ff9": 2314,
      "0x5680": 2315,
      "0x6d8": 2316,
      "0x614c": 2317,
      "0x7bc": 2318,
      "0x8b0": 2319,
      "0x961": 2320,
      "10b": 2321,
      "0x21f": 2322,
      "0x27a": 2323,
      "0x16f": 2324,
      "983": 2325,
      "2c6": 2326,
      "0x2c6": 2327,
      "e43": 2328,
      "942": 2329,
      "57a": 2330,
      "0x255": 2331,
      "0x377": 2332,
      "69fa2": 2333,
      "e29": 2334,
      "0x325": 2335,
      "272": 2336,
      "273": 2337,
      "0x20c20": 2338,
      "0x54969fa2": 2339,
      "efa": 2340,
      "ead": 2341,
      "0x5ec": 2342,
      "001": 2343,
      "0x7dd": 2344,
      "0x864": 2345,
      "0xafa": 2346,
      "0xc3f": 2347,
      "0xd5c": 2348,
      "0x708": 2349,
      "50d": 2350,
      "0x292": 2351,
      "3c3": 2352,
      "987": 2353,
      "74e": 2354,
      "e33": 2355,
      "0x2a2": 2356,
      "0x3a3": 2357,
      "f56": 2358,
      "0x307e4": 2359,
      "0x5e4": 2360,
      "0x551": 2361,
      "0x8f0": 2362,
      "0xab1": 2363,
      "0x948": 2364,
      "60c": 2365,
      "502": 2366,
      "cc2": 2367,
      "e8f": 2368,
      "28e": 2369,
      "0x34a": 2370,
      "945": 2371,
      "aa3": 2372,
      "66a": 2373,
      "fe9": 2374,
      "0x473": 2375,
      "556": 2376,
      "173": 2377,
      "527": 2378,
      "6ae": 2379,
      "0x20c98": 2380,
      "0x3ba": 2381,
      "0x4e2": 2382,
      "0x431": 2383,
      "ff7": 2384,
      "0x5a8": 2385,
      "0x5d7": 2386,
      "00c": 2387,
      "0x6a8": 2388,
      "0x6f8": 2389,
      "0x766": 2390,
      "0x828": 2391,
      "0x89c": 2392,
      "0x9f0": 2393,
      "0x508": 2394,
      "0x50c": 2395,
      "ec5": 2396,
      "706": 2397,
      "485": 2398,
      "0x21b": 2399,
      "0x27f": 2400,
      "bc5": 2401,
      "349": 2402,
      "e55": 2403,
      "e93": 2404,
      "52a": 2405,
      "0x331": 2406,
      "0x2b6": 2407,
      "0x3ead8": 2408,
      "0x537": 2409,
      "0x561": 2410,
      "0x7e7": 2411,
      "0x302": 2412,
      "0x30b": 2413,
      "0x28a": 2414,
      "0xa99": 2415,
      "0x930": 2416,
      "0x9a8": 2417,
      "0x955": 2418,
      "0x991": 2419,
      "ec3": 2420,
      "306": 2421,
      "b0a": 2422,
      "54d": 2423,
      "98b": 2424,
      "0x2c2": 2425,
      "bba": 2426,
      "5c2": 2427,
      "0x31d": 2428,
      "0x1ae": 2429,
      "fe1": 2430,
      "e5a": 2431,
      "672": 2432,
      "ba2": 2433,
      "0x3d9": 2434,
      "0x461": 2435,
      "0x4b7": 2436,
      "0x5cc": 2437,
      "0x5f8": 2438,
      "ebf": 2439,
      "0x929": 2440,
      "0x15010": 2441,
      "a03": 2442,
      "b04": 2443,
      "e8b": 2444,
      "28f": 2445,
      "aba": 2446,
      "14b": 2447,
      "57e": 2448,
      "e61": 2449,
      "e69": 2450,
      "e6e": 2451,
      "0x37b": 2452,
      "e1a": 2453,
      "63b": 2454,
      "fd2": 2455,
      "b29": 2456,
      "6db": 2457,
      "5d5": 2458,
      "627": 2459,
      "f73": 2460,
      "f7d": 2461,
      "656": 2462,
      "eb3": 2463,
      "0x6ea": 2464,
      "0x618": 2465,
      "0x63a": 2466,
      "0x8a1": 2467,
      "682": 2468,
      "30b": 2469,
      "cc4": 2470,
      "b8a": 2471,
      "141": 2472,
      "669": 2473,
      "0x23e": 2474,
      "9a5": 2475,
      "e5e": 2476,
      "63a": 2477,
      "e2d": 2478,
      "f75": 2479,
      "f79": 2480,
      "521": 2481,
      "65b": 2482,
      "0xdd0": 2483,
      "0xc007": 2484,
      "0x34c80": 2485,
      "0x92c": 2486,
      "0x994": 2487,
      "0xf010": 2488,
      "0x11b80": 2489,
      "40f": 2490,
      "705": 2491,
      "a86": 2492,
      "b86": 2493,
      "e89": 2494,
      "d02": 2495,
      "d81": 2496,
      "6c1": 2497,
      "6ce": 2498,
      "24e": 2499,
      "57b": 2500,
      "d43": 2501,
      "f12": 2502,
      "0x312": 2503,
      "0x413": 2504,
      "0x415": 2505,
      "e9d": 2506,
      "e76": 2507,
      "0x7c7": 2508,
      "525": 2509,
      "0x1ee": 2510,
      "0x8007023e": 2511,
      "0xffffffff80000001": 2512,
      "1b3": 2513,
      "f68": 2514,
      "0x4b4": 2515,
      "0x453": 2516,
      "0x46a": 2517,
      "dd3": 2518,
      "0x65c": 2519,
      "0x7e3": 2520,
      "0x848": 2521,
      "cc8": 2522,
      "b82": 2523,
      "d89": 2524,
      "d8a": 2525,
      "745": 2526,
      "e4a": 2527,
      "0x319": 2528,
      "236": 2529,
      "0xb08": 2530,
      "9a3": 2531,
      "e65": 2532,
      "0x544": 2533,
      "63d": 2534,
      "0x47d": 2535,
      "55e": 2536,
      "5d7": 2537,
      "0x80005": 2538,
      "0x95bb0": 2539,
      "53c": 2540,
      "0x465": 2541,
      "0x439": 2542,
      "0x522": 2543,
      "0x758": 2544,
      "0x978": 2545,
      "0x928": 2546,
      "0x688": 2547,
      "e8d": 2548,
      "f87": 2549,
      "d04": 2550,
      "74b": 2551,
      "e4d": 2552,
      "fc5": 2553,
      "0x342": 2554,
      "0x371": 2555,
      "0x37d": 2556,
      "e1b": 2557,
      "63f": 2558,
      "b26": 2559,
      "519": 2560,
      "f9d": 2561,
      "0x3a7": 2562,
      "fbd": 2563,
      "0x791": 2564,
      "0xb200": 2565,
      "670": 2566,
      "f70": 2567,
      "0x422": 2568,
      "0x2000000": 2569,
      "ebb": 2570,
      "0x6dc": 2571,
      "0x728": 2572,
      "0x8e0": 2573,
      "0x874": 2574,
      "10a": 2575,
      "60f": 2576,
      "ece": 2577,
      "40b": 2578,
      "0x293": 2579,
      "905": 2580,
      "389": 2581,
      "585": 2582,
      "ac9": 2583,
      "18e": 2584,
      "2cd": 2585,
      "235": 2586,
      "23a": 2587,
      "9af": 2588,
      "e91": 2589,
      "fd7": 2590,
      "f31": 2591,
      "526": 2592,
      "6a9": 2593,
      "ba5": 2594,
      "0x7ad8": 2595,
      "0x1c850": 2596,
      "eaa": 2597,
      "0x35b": 2598,
      "0x59c": 2599,
      "0x5fc": 2600,
      "0x55c": 2601,
      "0x650": 2602,
      "0x8a8": 2603,
      "0x30a": 2604,
      "eca": 2605,
      "b83": 2606,
      "787": 2607,
      "2ca": 2608,
      "a4f": 2609,
      "6ca": 2610,
      "949": 2611,
      "345": 2612,
      "fa3": 2613,
      "e97": 2614,
      "e72": 2615,
      "51b": 2616,
      "0x2d5": 2617,
      "5a9": 2618,
      "111": 2619,
      "0x36590": 2620,
      "ff5": 2621,
      "0x514": 2622,
      "0x523": 2623,
      "eb1": 2624,
      "eb2": 2625,
      "0x69c": 2626,
      "0x7aa": 2627,
      "0x898": 2628,
      "0xc50": 2629,
      "0x14bc": 2630,
      "0x174c": 2631,
      "d84": 2632,
      "d85": 2633,
      "541": 2634,
      "3cd": 2635,
      "58b": 2636,
      "7c8": 2637,
      "2c7": 2638,
      "2c9": 2639,
      "24f": 2640,
      "743": 2641,
      "1c9": 2642,
      "1ce": 2643,
      "94f": 2644,
      "66e": 2645,
      "231": 2646,
      "e5b": 2647,
      "fd6": 2648,
      "0x2a6": 2649,
      "515": 2650,
      "b9f": 2651,
      "f96": 2652,
      "fb5": 2653,
      "f39": 2654,
      "52b": 2655,
      "d7e": 2656,
      "0x2f5": 2657,
      "ea3": 2658,
      "ff1": 2659,
      "ebe": 2660,
      "0x62a": 2661,
      "0x761": 2662,
      "0x306": 2663,
      "0x9ed": 2664,
      "0x931": 2665,
      "106": 2666,
      "0x48c": 2667,
      "28d": 2668,
      "ab2": 2669,
      "0x276": 2670,
      "ac2": 2671,
      "149": 2672,
      "241": 2673,
      "f47": 2674,
      "f49": 2675,
      "1c5": 2676,
      "9ad": 2677,
      "b1f": 2678,
      "6d2": 2679,
      "671": 2680,
      "67e": 2681,
      "f72": 2682,
      "f25": 2683,
      "0x3a9": 2684,
      "0x33d": 2685,
      "0x76bc": 2686,
      "0x3ccc8": 2687,
      "eb6": 2688,
      "0x7dc": 2689,
      "0x866": 2690,
      "0x96c": 2691,
      "0x38d": 2692,
      "403": 2693,
      "301": 2694,
      "58f": 2695,
      "643": 2696,
      "5c1": 2697,
      "5ce": 2698,
      "0xc0000225": 2699,
      "9ae": 2700,
      "e95": 2701,
      "e99": 2702,
      "e77": 2703,
      "b21": 2704,
      "596": 2705,
      "0x2d7": 2706,
      "f3e": 2707,
      "0x8c2": 2708,
      "b3b": 2709,
      "0x28110": 2710,
      "ea1": 2711,
      "0x5d4": 2712,
      "0x5d9": 2713,
      "0x838": 2714,
      "0x878": 2715,
      "0x402": 2716,
      "0xaac": 2717,
      "a0a": 2718,
      "a0f": 2719,
      "ecd": 2720,
      "685": 2721,
      "701": 2722,
      "70b": 2723,
      "ccf": 2724,
      "e8e": 2725,
      "283": 2726,
      "fc2": 2727,
      "0x34d": 2728,
      "5cb": 2729,
      "57d": 2730,
      "0x399": 2731,
      "f16": 2732,
      "f1a": 2733,
      "0xc00001": 2734,
      "fe2": 2735,
      "e1f": 2736,
      "fde": 2737,
      "37a": 2738,
      "51a": 2739,
      "f91": 2740,
      "f9e": 2741,
      "0x3a2": 2742,
      "33e": 2743,
      "0x2b5": 2744,
      "0x208f0": 2745,
      "0x12be4": 2746,
      "e60": 2747,
      "fbc": 2748,
      "edf": 2749,
      "0x4dd": 2750,
      "0x4bd": 2751,
      "0x5dc": 2752,
      "0x6bc": 2753,
      "0x484": 2754,
      "207": 2755,
      "0x7010": 2756,
      "a08": 2757,
      "385": 2758,
      "e86": 2759,
      "d07": 2760,
      "24d": 2761,
      "742": 2762,
      "0x346": 2763,
      "5c5": 2764,
      "34d": 2765,
      "34f": 2766,
      "662": 2767,
      "e5f": 2768,
      "e19": 2769,
      "637": 2770,
      "b2e": 2771,
      "6de": 2772,
      "177": 2773,
      "377": 2774,
      "676": 2775,
      "67a": 2776,
      "67d": 2777,
      "f7b": 2778,
      "b99": 2779,
      "b9b": 2780,
      "0x2d9": 2781,
      "0xc81ec": 2782,
      "65e": 2783,
      "dae": 2784,
      "0x12390": 2785,
      "0x1b374": 2786,
      "54a58": 2787,
      "b1b54a58": 2788,
      "b17b1b54a58": 2789,
      "0xc81ecb17b1b54a58": 2790,
      "fb8": 2791,
      "ed1": 2792,
      "0x40000": 2793,
      "0x4a9": 2794,
      "0x730": 2795,
      "0x7d1": 2796,
      "0x1050": 2797,
      "0xd10": 2798,
      "60b": 2799,
      "e0b": 2800,
      "707": 2801,
      "505": 2802,
      "545": 2803,
      "7c9": 2804,
      "7cf": 2805,
      "a43": 2806,
      "649": 2807,
      "0x3c00": 2808,
      "0x25e": 2809,
      "e51": 2810,
      "e16": 2811,
      "693": 2812,
      "175": 2813,
      "37e": 2814,
      "62f": 2815,
      "0x326": 2816,
      "592": 2817,
      "53f": 2818,
      "da5": 2819,
      "0x36b": 2820,
      "0xfffffffffffffff8": 2821,
      "0x10bd8": 2822,
      "0x38240": 2823,
      "0xc29a8": 2824,
      "0x9dbf8": 2825,
      "0xc0070000": 2826,
      "6b0": 2827,
      "ea5": 2828,
      "0x6eb": 2829,
      "0x6fc": 2830,
      "0x7b2": 2831,
      "0x855": 2832,
      "0xad9": 2833,
      "0x990": 2834,
      "60e": 2835,
      "ec1": 2836,
      "ec9": 2837,
      "30d": 2838,
      "70e": 2839,
      "a89": 2840,
      "e82": 2841,
      "28b": 2842,
      "546": 2843,
      "f01": 2844,
      "583": 2845,
      "142": 2846,
      "6c7": 2847,
      "e4e": 2848,
      "0x341": 2849,
      "0x980": 2850,
      "665": 2851,
      "fa9": 2852,
      "e12": 2853,
      "0x4c9": 2854,
      "593": 2855,
      "59f": 2856,
      "0x599": 2857,
      "5a3": 2858,
      "b7f": 2859,
      "279": 2860,
      "5ef": 2861,
      "eef": 2862,
      "0xcb688": 2863,
      "e18": 2864,
      "ea7": 2865,
      "ed5": 2866,
      "0x4b1": 2867,
      "ff3": 2868,
      "0x5aa": 2869,
      "0x5e5": 2870,
      "dd2": 2871,
      "0x8f8": 2872,
      "0x282": 2873,
      "203": 2874,
      "20f": 2875,
      "0x1200": 2876,
      "606": 2877,
      "689": 2878,
      "68d": 2879,
      "b09": 2880,
      "9c3": 2881,
      "9c7": 2882,
      "9cb": 2883,
      "7c5": 2884,
      "b45": 2885,
      "0x2c5": 2886,
      "0x2c210": 2887,
      "fce": 2888,
      "342": 2889,
      "0x3c3": 2890,
      "0x446": 2891,
      "fae": 2892,
      "0x2ad": 2893,
      "5d9": 2894,
      "511": 2895,
      "f36": 2896,
      "f3d": 2897,
      "0x8c0": 2898,
      "6ef": 2899,
      "0x1072c": 2900,
      "0x1c118": 2901,
      "aaaaaaaaaaaaaab": 2902,
      "ed3": 2903,
      "edd": 2904,
      "0x45c": 2905,
      "0x4aa": 2906,
      "0x5b9": 2907,
      "0x639": 2908,
      "0x71c": 2909,
      "0x7e2": 2910,
      "0x8ab": 2911,
      "0x86c": 2912,
      "0x8d4": 2913,
      "0x8d7": 2914,
      "a85": 2915,
      "906": 2916,
      "382": 2917,
      "f8d": 2918,
      "d0c": 2919,
      "e42": 2920,
      "e47": 2921,
      "94d": 2922,
      "576": 2923,
      "f1b": 2924,
      "f1d": 2925,
      "0x22f": 2926,
      "0x3cd": 2927,
      "0x447": 2928,
      "0x37a": 2929,
      "faf": 2930,
      "227": 2931,
      "e9f": 2932,
      "0x479": 2933,
      "612": 2934,
      "61a": 2935,
      "0x2da": 2936,
      "6a5": 2937,
      "0x335": 2938,
      "0x5b1": 2939,
      "002": 2940,
      "0x7ea": 2941,
      "0x7a7": 2942,
      "xmm4": 2943,
      "xmm8": 2944,
      "0x285": 2945,
      "202": 2946,
      "a01": 2947,
      "402": 2948,
      "407": 2949,
      "a82": 2950,
      "a8a": 2951,
      "90b": 2952,
      "38d": 2953,
      "789": 2954,
      "f89": 2955,
      "286": 2956,
      "48d": 2957,
      "9cd": 2958,
      "589": 2959,
      "64e": 2960,
      "741": 2961,
      "749": 2962,
      "1ca": 2963,
      "947": 2964,
      "5c7": 2965,
      "571": 2966,
      "0xa03": 2967,
      "aaa": 2968,
      "0x39a": 2969,
      "0x3ca": 2970,
      "0xc0000139": 2971,
      "23f": 2972,
      "fe3": 2973,
      "22a": 2974,
      "22f": 2975,
      "e11": 2976,
      "fda": 2977,
      "696": 2978,
      "6d3": 2979,
      "376": 2980,
      "f9f": 2981,
      "0x3a1": 2982,
      "532": 2983,
      "d9e": 2984,
      "3de": 2985,
      "0xbc00": 2986,
      "0x4f2": 2987,
      "0x400000": 2988,
      "0x5ea": 2989,
      "0x750": 2990,
      "0x7d4": 2991,
      "0x739": 2992,
      "0x8bd": 2993,
      "0xada": 2994,
      "a07": 2995,
      "a0d": 2996,
      "601": 2997,
      "607": 2998,
      "ec2": 2999,
      "281": 3000,
      "9c1": 3001,
      "d83": 3002,
      "542": 3003,
      "54e": 3004,
      "146": 3005,
      "14d": 3006,
      "641": 3007,
      "bce": 3008,
      "0x3cf": 3009,
      "0x441": 3010,
      "fa6": 3011,
      "e3a": 3012,
      "559": 3013,
      "695": 3014,
      "699": 3015,
      "fb6": 3016,
      "baf": 3017,
      "0x3d1": 3018,
      "c4a": 3019,
      "ed6": 3020,
      "ddfa": 3021,
      "0x6f4": 3022,
      "0x733": 3023,
      "0x817": 3024,
      "0x18e44": 3025,
      "0xab2": 3026,
      "0x970": 3027,
      "0x9e1": 3028,
      "0x944": 3029,
      "0x381": 3030,
      "0x19e0": 3031,
      "a0e": 3032,
      "ec6": 3033,
      "a81": 3034,
      "d01": 3035,
      "48b": 3036,
      "549": 3037,
      "f02": 3038,
      "58e": 3039,
      "985": 3040,
      "187": 3041,
      "143": 3042,
      "74d": 3043,
      "1c6": 3044,
      "343": 3045,
      "0x443": 3046,
      "0x444": 3047,
      "fe6": 3048,
      "0x372": 3049,
      "e53": 3050,
      "22d": 3051,
      "0x5c4": 3052,
      "62a": 3053,
      "611": 3054,
      "53a": 3055,
      "ba3": 3056,
      "0x1ef": 3057,
      "0x6c8": 3058,
      "0xacf60": 3059,
      "713": 3060,
      "0xdd4": 3061,
      "0x455c": 3062,
      "0x4f1fc": 3063,
      "48422": 3064,
      "0x37c08": 3065,
      "0xd1d10": 3066,
      "6e0": 3067,
      "0x4e5": 3068,
      "ffa": 3069,
      "0x552": 3070,
      "0x6ab": 3071,
      "0x7e8": 3072,
      "0x10d0": 3073,
      "0xa66": 3074,
      "0xa33": 3075,
      "10f": 3076,
      "0x80040": 3077,
      "302": 3078,
      "b85": 3079,
      "e8a": 3080,
      "78a": 3081,
      "9c9": 3082,
      "d8c": 3083,
      "3c2": 3084,
      "0xffffffffffff": 3085,
      "acd": 3086,
      "18d": 3087,
      "646": 3088,
      "f46": 3089,
      "dcb": 3090,
      "e4f": 3091,
      "0x3c1": 3092,
      "2325": 3093,
      "fe5": 3094,
      "fef": 3095,
      "e31": 3096,
      "636": 3097,
      "555": 3098,
      "692": 3099,
      "5de": 3100,
      "679": 3101,
      "62e": 3102,
      "f93": 3103,
      "0x3a5": 3104,
      "59d": 3105,
      "0x2d23c": 3106,
      "f3f": 3107,
      "b71": 3108,
      "27a": 3109,
      "d11": 3110,
      "a35": 3111,
      "135": 3112,
      "0xcbf2": 3113,
      "0x30804": 3114,
      "0x21720": 3115,
      "0x2b992": 3116,
      "0x24f9c": 3117,
      "ee0": 3118,
      "eaf": 3119,
      "0x20e": 3120,
      "0x5d1": 3121,
      "0x6d4": 3122,
      "0x1040": 3123,
      "0xa68": 3124,
      "0x38b": 3125,
      "0x48b": 3126,
      "a09": 3127,
      "405": 3128,
      "b02": 3129,
      "901": 3130,
      "282": 3131,
      "abf": 3132,
      "ac7": 3133,
      "7cd": 3134,
      "189": 3135,
      "2c3": 3136,
      "f4d": 3137,
      "dc9": 3138,
      "fc1": 3139,
      "1c2": 3140,
      "94a": 3141,
      "5cf": 3142,
      "347": 3143,
      "0x39f": 3144,
      "0x44c": 3145,
      "0x44d": 3146,
      "23b": 3147,
      "b19": 3148,
      "fa5": 3149,
      "fd1": 3150,
      "e21": 3151,
      "e2b": 3152,
      "5db": 3153,
      "17a": 3154,
      "372": 3155,
      "516": 3156,
      "51d": 3157,
      "0x3254": 3158,
      "5a7": 3159,
      "d73": 3160,
      "65f": 3161,
      "f5f": 3162,
      "4c8": 3163,
      "5b5": 3164,
      "f6f": 3165,
      "0x2e00": 3166,
      "0x4ab": 3167,
      "0x46f": 3168,
      "0x633": 3169,
      "0x819": 3170,
      "0x40d": 3171,
      "0xaa3": 3172,
      "0x959": 3173,
      "0x9d9": 3174,
      "101": 3175,
      "609": 3176,
      "507": 3177,
      "f81": 3178,
      "d05": 3179,
      "483": 3180,
      "0x27e": 3181,
      "986": 3182,
      "7c2": 3183,
      "2cb": 3184,
      "b43": 3185,
      "242": 3186,
      "fc9": 3187,
      "1cb": 3188,
      "341": 3189,
      "0x449": 3190,
      "fafa": 3191,
      "e92": 3192,
      "e9b": 3193,
      "e3d": 3194,
      "69e": 3195,
      "5d6": 3196,
      "379": 3197,
      "37b": 3198,
      "b92": 3199,
      "b95": 3200,
      "f2d": 3201,
      "615": 3202,
      "0x8c98c": 3203,
      "bae": 3204,
      "27e": 3205,
      "395": 3206,
      "3db": 3207,
      "125": 3208,
      "0x26600": 3209,
      "9ce48422": 3210,
      "0x9e62c": 3211,
      "0xcbf29ce48422": 3212,
      "0x2b992ddfa": 3213,
      "0xcbf29ce484222325": 3214,
      "b10": 3215,
      "eab": 3216,
      "0x5a7": 3217,
      "0x8bb": 3218,
      "0x85c": 3219,
      "0x8b1": 3220,
      "0x286": 3221,
      "0x938": 3222,
      "e01": 3223,
      "307": 3224,
      "90a": 3225,
      "90d": 3226,
      "abe": 3227,
      "f07": 3228,
      "587": 3229,
      "acf": 3230,
      "18a": 3231,
      "18b": 3232,
      "14f": 3233,
      "64b": 3234,
      "6cd": 3235,
      "74f": 3236,
      "e45": 3237,
      "fcf": 3238,
      "572": 3239,
      "aae": 3240,
      "0x3c2": 3241,
      "66b": 3242,
      "e6f": 3243,
      "222": 3244,
      "e7a": 3245,
      "e7e": 3246,
      "635": 3247,
      "0x491": 3248,
      "691": 3249,
      "e2e": 3250,
      "62b": 3251,
      "61b": 3252,
      "595": 3253,
      "fb7": 3254,
      "d76": 3255,
      "5be": 3256,
      "71e": 3257,
      "0xfffffffffffffff0": 3258,
      "0xfffffffffffffffc": 3259,
      "0x87b20805": 3260,
      "0xb9924": 3261,
      "ff6": 3262,
      "0x51c": 3263,
      "0x62c": 3264,
      "0x6fe": 3265,
      "0x82c": 3266,
      "0x407": 3267,
      "0xa6a": 3268,
      "0x965": 3269,
      "10e": 3270,
      "0x608": 3271,
      "68f": 3272,
      "305": 3273,
      "309": 3274,
      "b05": 3275,
      "785": 3276,
      "786": 3277,
      "d8d": 3278,
      "54b": 3279,
      "581": 3280,
      "7ce": 3281,
      "18f": 3282,
      "a4b": 3283,
      "64d": 3284,
      "fc6": 3285,
      "1cd": 3286,
      "bc6": 3287,
      "aa1": 3288,
      "0x416": 3289,
      "237": 3290,
      "9a2": 3291,
      "e1d": 3292,
      "e7f": 3293,
      "631": 3294,
      "0x7c8": 3295,
      "f21": 3296,
      "f9b": 3297,
      "616": 3298,
      "5ad": 3299,
      "4ca": 3300,
      "0xea88": 3301,
      "0x4550": 3302,
      "0x16a34": 3303,
      "ea9": 3304,
      "0x5ac": 3305,
      "0x53a": 3306,
      "0x6f1": 3307,
      "0x7ec": 3308,
      "0x83c": 3309,
      "0xa1c": 3310,
      "0x13c0": 3311,
      "e05": 3312,
      "d0b": 3313,
      "48a": 3314,
      "9cf": 3315,
      "ab7": 3316,
      "582": 3317,
      "98a": 3318,
      "98d": 3319,
      "7c3": 3320,
      "147": 3321,
      "b41": 3322,
      "e49": 3323,
      "34e": 3324,
      "575": 3325,
      "0xa8ed4": 3326,
      "0x37f": 3327,
      "fad": 3328,
      "e15": 3329,
      "e36": 3330,
      "639": 3331,
      "55d": 3332,
      "6df": 3333,
      "e26": 3334,
      "17d": 3335,
      "0x2db": 3336,
      "5a6": 3337,
      "0xf830": 3338,
      "eee": 3339,
      "3d6": 3340,
      "a79": 3341,
      "92f": 3342,
      "0xb9ebc": 3343,
      "0x100000001b3": 3344,
      "e14": 3345,
      "edb": 3346,
      "0x459": 3347,
      "0x20000": 3348,
      "0x52b": 3349,
      "0x5a1": 3350,
      "005": 3351,
      "ddd": 3352,
      "0x6ba": 3353,
      "0x7bb": 3354,
      "0x861": 3355,
      "0x309c0": 3356,
      "0x40fc": 3357,
      "0x910": 3358,
      "0xf31": 3359,
      "20a": 3360,
      "0x788": 3361,
      "a06": 3362,
      "0x1cac8": 3363,
      "ec7": 3364,
      "b03": 3365,
      "cc1": 3366,
      "b89": 3367,
      "78f": 3368,
      "48e": 3369,
      "9c6": 3370,
      "9ca": 3371,
      "64f": 3372,
      "1c1": 3373,
      "bcb": 3374,
      "94e": 3375,
      "aa9": 3376,
      "e63": 3377,
      "fa7": 3378,
      "b25": 3379,
      "37d": 3380,
      "67f": 3381,
      "512": 3382,
      "f2e": 3383,
      "f97": 3384,
      "5ae": 3385,
      "d1d": 3386,
      "d1f": 3387,
      "6b6": 3388,
      "0x21a38": 3389,
      "nce": 3390,
      "0x4a3": 3391,
      "ffb": 3392,
      "0x5eb": 3393,
      "0x553": 3394,
      "006": 3395,
      "0x7e5": 3396,
      "0x7a1": 3397,
      "xmm5": 3398,
      "0x8e8": 3399,
      "0x873": 3400,
      "0x9f8": 3401,
      "102": 3402,
      "103": 3403,
      "0xb380": 3404,
      "303": 3405,
      "0x1f84": 3406,
      "70a": 3407,
      "a8d": 3408,
      "383": 3409,
      "d0a": 3410,
      "48f": 3411,
      "3cb": 3412,
      "0x904": 3413,
      "0x889": 3414,
      "7cb": 3415,
      "645": 3416,
      "fcb": 3417,
      "34a": 3418,
      "d4b": 3419,
      "0x39d": 3420,
      "0x41d8": 3421,
      "0xa8c": 3422,
      "fence": 3423,
      "b11": 3424,
      "221": 3425,
      "e9e": 3426,
      "e37": 3427,
      "b2a": 3428,
      "67b": 3429,
      "626": 3430,
      "62d": 3431,
      "f7f": 3432,
      "f2b": 3433,
      "6af": 3434,
      "d75": 3435,
      "b31": 3436,
      "0x3d6": 3437,
      "0x573": 3438,
      "2a3": 3439,
      "5ee": 3440,
      "0x9c0": 3441,
      "0x6220": 3442,
      "0x993": 3443,
      "0x228ec": 3444,
      "comiss": 3445,
      "0x391d0": 3446,
      "e20": 3447,
      "lfence": 3448,
      "pd": 3449,
      "0x4e7": 3450,
      "ffe": 3451,
      "00b": 3452,
      "0x6e3": 3453,
      "0x631": 3454,
      "0x721": 3455,
      "0x727": 3456,
      "0x731": 3457,
      "0x8bc": 3458,
      "0x811": 3459,
      "0xa74": 3460,
      "0x504": 3461,
      "0x1538": 3462,
      "50a": 3463,
      "ccb": 3464,
      "cce": 3465,
      "387": 3466,
      "0x908": 3467,
      "f03": 3468,
      "0x88c": 3469,
      "a47": 3470,
      "a4e": 3471,
      "6c3": 3472,
      "bb6": 3473,
      "aa2": 3474,
      "0x3c7": 3475,
      "666": 3476,
      "551": 3477,
      "6d1": 3478,
      "0xc0a": 3479,
      "513": 3480,
      "f32": 3481,
      "539": 3482,
      "d72": 3483,
      "d79": 3484,
      "b3a": 3485,
      "393": 3486,
      "da6": 3487,
      "a72": 3488,
      "12f": 3489,
      "c88": 3490,
      "0xd9f4": 3491,
      "0xbe70": 3492,
      "e38e38": 3493,
      "0x8dca4": 3494,
      "65d": 3495,
      "0x2ee": 3496,
      "ea2": 3497,
      "0x45b": 3498,
      "0x20f8": 3499,
      "0x5bc": 3500,
      "0x5f1": 3501,
      "0x569": 3502,
      "0x5b7": 3503,
      "0x5bd": 3504,
      "ddf": 3505,
      "eb5": 3506,
      "0x85d": 3507,
      "0x2840c": 3508,
      "0xa6e": 3509,
      "0x919": 3510,
      "0x481": 3511,
      "0x800484": 3512,
      "686": 3513,
      "68b": 3514,
      "e02": 3515,
      "e07": 3516,
      "cc7": 3517,
      "b87": 3518,
      "f86": 3519,
      "482": 3520,
      "acb": 3521,
      "98f": 3522,
      "7ca": 3523,
      "182": 3524,
      "2cf": 3525,
      "dce": 3526,
      "1cf": 3527,
      "0x41d": 3528,
      "66d": 3529,
      "fe7": 3530,
      "0x376": 3531,
      "e59": 3532,
      "e2a": 3533,
      "17b": 3534,
      "677": 3535,
      "625": 3536,
      "b9d": 3537,
      "0x4cf": 3538,
      "332": 3539,
      "52f": 3540,
      "0x773": 3541,
      "da9": 3542,
      "6be": 3543,
      "0xc0000034": 3544,
      "0x5a4d": 3545,
      "0x977f4": 3546,
      "f10": 3547,
      "f74": 3548,
      "ro": 3549,
      "0x2ef": 3550,
      "eae": 3551,
      "0x5e3": 3552,
      "dd5": 3553,
      "0x7ab": 3554,
      "0x794": 3555,
      "0x75c": 3556,
      "0x734": 3557,
      "0x899": 3558,
      "0x879": 3559,
      "0xadb": 3560,
      "0x9bc": 3561,
      "0x923": 3562,
      "201": 3563,
      "0x684": 3564,
      "0x78a": 3565,
      "603": 3566,
      "60a": 3567,
      "681": 3568,
      "406": 3569,
      "40a": 3570,
      "b06": 3571,
      "cc3": 3572,
      "909": 3573,
      "d09": 3574,
      "ab3": 3575,
      "3ce": 3576,
      "a46": 3577,
      "b4a": 3578,
      "245": 3579,
      "e41": 3580,
      "1c7": 3581,
      "d4f": 3582,
      "aa5": 3583,
      "6d6": 3584,
      "f29": 3585,
      "613": 3586,
      "52d": 3587,
      "bad": 3588,
      "bdf": 3589,
      "0x743": 3590,
      "39d": 3591,
      "d95": 3592,
      "6b5": 3593,
      "0x96488": 3594,
      "7b6": 3595,
      "0xd638": 3596,
      "0x4d92c": 3597,
      "0xbb238": 3598,
      "0xb2a54": 3599,
      "0x529": 3600,
      "0x52a": 3601,
      "00e": 3602,
      "0x614": 3603,
      "0x79a": 3604,
      "0x762": 3605,
      "0x765": 3606,
      "0x8ff": 3607,
      "0x8e3": 3608,
      "0x812": 3609,
      "0xa44": 3610,
      "0x808": 3611,
      "e09": 3612,
      "e0f": 3613,
      "d0e": 3614,
      "543": 3615,
      "0x2710": 3616,
      "181": 3617,
      "183": 3618,
      "2c5": 3619,
      "a4d": 3620,
      "642": 3621,
      "b49": 3622,
      "b4b": 3623,
      "6c9": 3624,
      "dc6": 3625,
      "941": 3626,
      "5c9": 3627,
      "d41": 3628,
      "d47": 3629,
      "d49": 3630,
      "aa7": 3631,
      "0x22e6": 3632,
      "0x3cb": 3633,
      "0x23f": 3634,
      "226": 3635,
      "22b": 3636,
      "0x472": 3637,
      "69b": 3638,
      "69d": 3639,
      "629": 3640,
      "fb3": 3641,
      "0x2d6": 3642,
      "0x51eb8": 3643,
      "5a1": 3644,
      "6a1": 3645,
      "d7d": 3646,
      "f5b": 3647,
      "dad": 3648,
      "2df": 3649,
      "7df": 3650,
      "0x9378": 3651,
      "0x14a1b0": 3652,
      "0x51eb851f": 3653,
      "ed9": 3654,
      "0x4b3": 3655,
      "0x5ff": 3656,
      "0x678": 3657,
      "0x6bb": 3658,
      "0x629": 3659,
      "0x75d": 3660,
      "0xa10": 3661,
      "0x9f1": 3662,
      "0x9f3": 3663,
      "0x1474": 3664,
      "e0e": 3665,
      "0x1fe": 3666,
      "b81": 3667,
      "38b": 3668,
      "38f": 3669,
      "0x21e": 3670,
      "ab6": 3671,
      "f0a": 3672,
      "ac3": 3673,
      "ac5": 3674,
      "145": 3675,
      "6cf": 3676,
      "f42": 3677,
      "74a": 3678,
      "fcd": 3679,
      "bcd": 3680,
      "d4e": 3681,
      "0x1be": 3682,
      "0x419": 3683,
      "b12": 3684,
      "e7d": 3685,
      "fdf": 3686,
      "0x499": 3687,
      "69f": 3688,
      "6d7": 3689,
      "f99": 3690,
      "33d": 3691,
      "599": 3692,
      "0x8c8": 3693,
      "211": 3694,
      "bd6": 3695,
      "d25": 3696,
      "0x9ca": 3697,
      "0x815": 3698,
      "0xbce4": 3699,
      "0x11a38": 3700,
      "0x7ed1c": 3701,
      "eda": 3702,
      "0x524": 3703,
      "0x557": 3704,
      "0x5e1": 3705,
      "0x737": 3706,
      "0x7b9": 3707,
      "0x8e9": 3708,
      "0x8b7": 3709,
      "0x3064": 3710,
      "subsd": 3711,
      "0x96a": 3712,
      "0x38a": 3713,
      "0xb50": 3714,
      "0xeeb0": 3715,
      "0x804": 3716,
      "e03": 3717,
      "e0a": 3718,
      "40e": 3719,
      "903": 3720,
      "486": 3721,
      "ab1": 3722,
      "3c7": 3723,
      "58a": 3724,
      "186": 3725,
      "6c5": 3726,
      "f41": 3727,
      "f4b": 3728,
      "0x8007139": 3729,
      "346": 3730,
      "d4d": 3731,
      "0x22e": 3732,
      "e3b": 3733,
      "0x7c9": 3734,
      "0x7cb": 3735,
      "fd9": 3736,
      "fdb": 3737,
      "0x471": 3738,
      "5d1": 3739,
      "0x5c7": 3740,
      "51e": 3741,
      "f95": 3742,
      "335": 3743,
      "f35": 3744,
      "5a2": 3745,
      "536": 3746,
      "d71": 3747,
      "d7f": 3748,
      "21b": 3749,
      "0x3db": 3750,
      "0xc000007b": 3751,
      "a9d": 3752,
      "0x8007139f": 3753,
      "f20": 3754,
      "fd0": 3755,
      "0x4d2": 3756,
      "0x5f7": 3757,
      "007": 3758,
      "0x8ac": 3759,
      "0x82a": 3760,
      "0xa60": 3761,
      "0xa6d": 3762,
      "0xa2a": 3763,
      "0x9e8": 3764,
      "0x9aa": 3765,
      "0x956": 3766,
      "0x386": 3767,
      "105": 3768,
      "206": 3769,
      "703": 3770,
      "a87": 3771,
      "3c6": 3772,
      "f09": 3773,
      "989": 3774,
      "2c2": 3775,
      "6cb": 3776,
      "d45": 3777,
      "f11": 3778,
      "0x41a": 3779,
      "0xa84": 3780,
      "66f": 3781,
      "b16": 3782,
      "e3e": 3783,
      "0x7c5": 3784,
      "b2f": 3785,
      "55a": 3786,
      "e2f": 3787,
      "375": 3788,
      "673": 3789,
      "f27": 3790,
      "591": 3791,
      "f3b": 3792,
      "b72": 3793,
      "b32": 3794,
      "bd3": 3795,
      "bd5": 3796,
      "291": 3797,
      "d96": 3798,
      "313": 3799,
      "5b6": 3800,
      "0xac0": 3801,
      "32f": 3802,
      "0x4a2": 3803,
      "0xc458": 3804,
      "0x92dc": 3805,
      "ef4": 3806,
      "0x3f5": 3807,
      "ed2": 3808,
      "0x452": 3809,
      "0x43a": 3810,
      "003": 3811,
      "0x627": 3812,
      "0x754": 3813,
      "0x774": 3814,
      "0x8ea": 3815,
      "0x824": 3816,
      "0xaaaaaaaaaaaaaaab": 3817,
      "0x940": 3818,
      "109": 3819,
      "205": 3820,
      "20b": 3821,
      "0x784": 3822,
      "0x800401": 3823,
      "30e": 3824,
      "0x1fd44": 3825,
      "e85": 3826,
      "f05": 3827,
      "a42": 3828,
      "5cd": 3829,
      "aa6": 3830,
      "0x44b8": 3831,
      "0x23ed4": 3832,
      "0x54c": 3833,
      "fd3": 3834,
      "552": 3835,
      "553": 3836,
      "e27": 3837,
      "0x5c8": 3838,
      "b91": 3839,
      "b97": 3840,
      "f92": 3841,
      "597": 3842,
      "59e": 3843,
      "6a3": 3844,
      "6a6": 3845,
      "b35": 3846,
      "0x33b": 3847,
      "bda": 3848,
      "0x575": 3849,
      "2b5": 3850,
      "0x4d3": 3851,
      "2d6": 3852,
      "0x75f4": 3853,
      "0x80070490": 3854,
      "0x4f4": 3855,
      "0x5b2": 3856,
      "0xa57": 3857,
      "0x960": 3858,
      "0x9d0": 3859,
      "0xc19": 3860,
      "0xd590": 3861,
      "0x58c": 3862,
      "20d": 3863,
      "a02": 3864,
      "a0b": 3865,
      "683": 3866,
      "687": 3867,
      "386": 3868,
      "f83": 3869,
      "f8a": 3870,
      "d0f": 3871,
      "f0e": 3872,
      "58d": 3873,
      "a45": 3874,
      "a49": 3875,
      "647": 3876,
      "f4a": 3877,
      "f4e": 3878,
      "fc3": 3879,
      "5ca": 3880,
      "0xa04": 3881,
      "0x493": 3882,
      "55b": 3883,
      "6d5": 3884,
      "f2a": 3885,
      "53b": 3886,
      "6ad": 3887,
      "b7d": 3888,
      "b36": 3889,
      "0x699": 3890,
      "d13": 3891,
      "6bf": 3892,
      "5bf": 3893,
      "0x432": 3894,
      "0x6d68": 3895,
      "0x4ac": 3896,
      "ff2": 3897,
      "0x657": 3898,
      "0x6b1": 3899,
      "0x7d9": 3900,
      "0x7a9": 3901,
      "0x9b0": 3902,
      "0x914": 3903,
      "0x9dc": 3904,
      "0x917": 3905,
      "0x921": 3906,
      "10d": 3907,
      "0xf50": 3908,
      "0x581": 3909,
      "0x704": 3910,
      "a05": 3911,
      "602": 3912,
      "68a": 3913,
      "40d": 3914,
      "709": 3915,
      "a8b": 3916,
      "d0d": 3917,
      "ab69": 3918,
      "3c5": 3919,
      "981": 3920,
      "bb9": 3921,
      "bbe": 3922,
      "bc2": 3923,
      "f19": 3924,
      "0xa89": 3925,
      "e7b": 3926,
      "633": 3927,
      "0x7c3": 3928,
      "5d3": 3929,
      "5da": 3930,
      "621": 3931,
      "333": 3932,
      "33a": 3933,
      "0x8c1": 3934,
      "d7a": 3935,
      "292": 3936,
      "296": 3937,
      "0x5798": 3938,
      "d1a": 3939,
      "397": 3940,
      "3ae": 3941,
      "3df": 3942,
      "db5": 3943,
      "fffffffffffffff": 3944,
      "0xb7914": 3945,
      "0x92b64": 3946,
      "0x37350": 3947,
      "0x29bac": 3948,
      "fec": 3949,
      "ed7": 3950,
      "0x5f4": 3951,
      "009": 3952,
      "dd7": 3953,
      "ebd": 3954,
      "0x6e4": 3955,
      "0x724": 3956,
      "0x7e4": 3957,
      "0x7f7": 3958,
      "0x756": 3959,
      "0x40b": 3960,
      "0x93c": 3961,
      "0x9fd": 3962,
      "30a": 3963,
      "b0b": 3964,
      "b0e": 3965,
      "509": 3966,
      "cc9": 3967,
      "28a": 3968,
      "d82": 3969,
      "d8e": 3970,
      "f0f": 3971,
      "b42": 3972,
      "b4f": 3973,
      "1c3": 3974,
      "943": 3975,
      "579": 3976,
      "aad": 3977,
      "0x1bf0": 3978,
      "e67": 3979,
      "e5d": 3980,
      "fa1": 3981,
      "e71": 3982,
      "e35": 3983,
      "697": 3984,
      "6da": 3985,
      "179": 3986,
      "17e": 3987,
      "f71": 3988,
      "61f": 3989,
      "336": 3990,
      "339": 3991,
      "33f": 3992,
      "535": 3993,
      "b7a": 3994,
      "b3d": 3995,
      "ba9": 3996,
      "0x3d3": 3997,
      "d16": 3998,
      "31b": 3999,
      "19d": 4000,
      "0x1208a": 4001,
      "0x3b6": 4002,
      "0x5f288": 4003,
      "0x4a5": 4004,
      "0xb9b80": 4005,
      "0x8000000c": 4006,
      "0x7f1137fab69": 4007,
      "0xab1e8": 4008,
      "0x7f1137fab69605e": 4009,
      "0c": 4010,
      "0x3ee": 4011,
      "0x4e9": 4012,
      "0x4f9": 4013,
      "0x555": 4014,
      "dd6": 4015,
      "0x6a7": 4016,
      "0x8e4": 4017,
      "0x821": 4018,
      "0xa54": 4019,
      "0x966": 4020,
      "0x489": 4021,
      "0x689": 4022,
      "b01": 4023,
      "70d": 4024,
      "70f": 4025,
      "506": 4026,
      "38a": 4027,
      "d06": 4028,
      "d8f": 4029,
      "0x88a": 4030,
      "a41": 4031,
      "b4d": 4032,
      "f45": 4033,
      "746": 4034,
      "bb5": 4035,
      "0x395": 4036,
      "e6b": 4037,
      "0x37e": 4038,
      "229": 4039,
      "e13": 4040,
      "e17": 4041,
      "e75": 4042,
      "5df": 4043,
      "61d": 4044,
      "529": 4045,
      "531": 4046,
      "6a7": 4047,
      "0x749": 4048,
      "d15": 4049,
      "d97": 4050,
      "3a6": 4051,
      "3ad": 4052,
      "31d": 4053,
      "0xa11": 4054,
      "19f": 4055,
      "d2d": 4056,
      "12d": 4057,
      "772": 4058,
      "0x2f4e8": 4059,
      "efc": 4060,
      "0x4ff": 4061,
      "0x467": 4062,
      "0x4f7": 4063,
      "0x4db": 4064,
      "0x52c": 4065,
      "0x628": 4066,
      "0x69a": 4067,
      "0x7eb": 4068,
      "0x763": 4069,
      "0xaa0": 4070,
      "0xd20": 4071,
      "0xd9a": 4072,
      "907": 4073,
      "783": 4074,
      "78d": 4075,
      "f82": 4076,
      "ab5": 4077,
      "d86": 4078,
      "dc2": 4079,
      "bb2": 4080,
      "bb7": 4081,
      "f17": 4082,
      "e25": 4083,
      "17f": 4084,
      "0x5c9": 4085,
      "b9e": 4086,
      "f2f": 4087,
      "0x3ad": 4088,
      "619": 4089,
      "33b": 4090,
      "212": 4091,
      "21e": 4092,
      "bdb": 4093,
      "0x572": 4094,
      "2a2": 4095,
      "d1b": 4096,
      "31e": 4097,
      "da3": 4098,
      "da7": 4099,
      "f6e": 4100,
      "32d": 4101,
      "1af": 4102,
      "setg": 4103,
      "0xc150": 4104,
      "66666666": 4105,
      "0x6e5ac": 4106,
      "0x3ef": 4107,
      "ede": 4108,
      "0x4fb": 4109,
      "00a": 4110,
      "0x652": 4111,
      "0x8fc": 4112,
      "0x84c": 4113,
      "0xb60": 4114,
      "0xb2b": 4115,
      "0x48a": 4116,
      "0x58d": 4117,
      "0x14c0": 4118,
      "cc5": 4119,
      "cca": 4120,
      "38e": 4121,
      "78e": 4122,
      "b4e": 4123,
      "6c6": 4124,
      "f43": 4125,
      "dca": 4126,
      "bbf": 4127,
      "0x39b": 4128,
      "0x316": 4129,
      "b1d": 4130,
      "e56": 4131,
      "b93": 4132,
      "f3a": 4133,
      "b79": 4134,
      "d77": 4135,
      "ba1": 4136,
      "0x3d5": 4137,
      "27b": 4138,
      "299": 4139,
      "29f": 4140,
      "f5e": 4141,
      "2a5": 4142,
      "3a2": 4143,
      "3a3": 4144,
      "31a": 4145,
      "0x8007000d": 4146,
      "0x435a0": 4147,
      "3d3": 4148,
      "a96": 4149,
      "dbe": 4150,
      "325": 4151,
      "ade": 4152,
      "0xafa7f": 4153,
      "0xc3f7c": 4154,
      "fe8": 4155,
      "fac": 4156,
      "0x55a": 4157,
      "0x5a3": 4158,
      "dda": 4159,
      "0x668": 4160,
      "0x748": 4161,
      "0x79c": 4162,
      "0x85a": 4163,
      "0x87a": 4164,
      "0x891": 4165,
      "0x8404": 4166,
      "0x2830c": 4167,
      "0x964": 4168,
      "0x937": 4169,
      "0x967": 4170,
      "0xc76": 4171,
      "0x605": 4172,
      "0x587": 4173,
      "0x8080": 4174,
      "ecf": 4175,
      "503": 4176,
      "b8f": 4177,
      "d8b": 4178,
      "dq2": 4179,
      "d4a": 4180,
      "0x25280": 4181,
      "b1a": 4182,
      "0x64c": 4183,
      "0x4c4": 4184,
      "b7e": 4185,
      "bde": 4186,
      "d9d": 4187,
      "da2": 4188,
      "2be": 4189,
      "0xffffff7f": 4190,
      "0x42f": 4191,
      "0x3b5": 4192,
      "0xeb4": 4193,
      "0xdde90": 4194,
      "0x9d28": 4195,
      "cvtdq2": 4196,
      "0x4f8c8": 4197,
      "0x78014": 4198,
      "ymmword": 4199,
      "0x577b4": 4200,
      "6e2": 4201,
      "0x100000": 4202,
      "0x4ed": 4203,
      "0x42b": 4204,
      "0x53c": 4205,
      "0x564": 4206,
      "00f": 4207,
      "eba": 4208,
      "0x61c": 4209,
      "0x7e9": 4210,
      "0x87d": 4211,
      "0xa24": 4212,
      "0x924": 4213,
      "107": 4214,
      "0x584": 4215,
      "0xe11": 4216,
      "0x802": 4217,
      "0x78c": 4218,
      "0x1ce": 4219,
      "e06": 4220,
      "b0d": 4221,
      "a8e": 4222,
      "90f": 4223,
      "287": 4224,
      "289": 4225,
      "f06": 4226,
      "7c7": 4227,
      "0x24e": 4228,
      "14e": 4229,
      "dc5": 4230,
      "0x1de": 4231,
      "0x644a": 4232,
      "0x7cd": 4233,
      "55f": 4234,
      "f7e": 4235,
      "b96": 4236,
      "0x4cd": 4237,
      "213": 4238,
      "21f": 4239,
      "77e": 4240,
      "0x81658": 4241,
      "71b": 4242,
      "7bf": 4243,
      "9df": 4244,
      "0x1e808": 4245,
      "0x460a0": 4246,
      "0x18a6c": 4247,
      "b90": 4248,
      "f0000": 4249,
      "0x594": 4250,
      "ddb": 4251,
      "0x6e6": 4252,
      "0x6f3": 4253,
      "0x8d8": 4254,
      "0xa58": 4255,
      "0xa27": 4256,
      "0x91c": 4257,
      "0xcb6": 4258,
      "0xb20": 4259,
      "0x501": 4260,
      "0x588": 4261,
      "0xe3c": 4262,
      "e0d": 4263,
      "50e": 4264,
      "781": 4265,
      "0x88d": 4266,
      "ac6": 4267,
      "f4f": 4268,
      "0x3c6": 4269,
      "0x252a0": 4270,
      "b2d": 4271,
      "371": 4272,
      "0x4c7": 4273,
      "52e": 4274,
      "0x512": 4275,
      "0x100a0": 4276,
      "0x619": 4277,
      "0x57684": 4278,
      "2a1": 4279,
      "2a9": 4280,
      "993": 4281,
      "112": 4282,
      "71d": 4283,
      "0x4b7c": 4284,
      "0xb19c": 4285,
      "0x22314": 4286,
      "ymm0": 4287,
      "0x45a": 4288,
      "0x667": 4289,
      "0x6a1": 4290,
      "0x1060": 4291,
      "0x8cc": 4292,
      "0xa2c": 4293,
      "0x9e4": 4294,
      "0x951": 4295,
      "0xc65": 4296,
      "0xba0": 4297,
      "0xb68": 4298,
      "0xb000000": 4299,
      "0xec0": 4300,
      "20e": 4301,
      "68e": 4302,
      "e81": 4303,
      "78b": 4304,
      "d87": 4305,
      "f0d": 4306,
      "e4b": 4307,
      "fc7": 4308,
      "0x34c4a": 4309,
      "0x44a": 4310,
      "e96": 4311,
      "b27": 4312,
      "331": 4313,
      "b76": 4314,
      "b3f": 4315,
      "0x3d9c": 4316,
      "319": 4317,
      "0x35f": 4318,
      "126": 4319,
      "777": 4320,
      "77d": 4321,
      "8081": 4322,
      "0xea60": 4323,
      "0x4d6b8": 4324,
      "0xa99b8": 4325,
      "234": 4326,
      "0x46e": 4327,
      "0x517": 4328,
      "0x7f5": 4329,
      "0x10a0": 4330,
      "0x8ec": 4331,
      "0x894": 4332,
      "0x827": 4333,
      "0x829": 4334,
      "0x871": 4335,
      "0xa70": 4336,
      "0xaa8": 4337,
      "0x583": 4338,
      "0x70e6a": 4339,
      "b07": 4340,
      "50f": 4341,
      "b8b": 4342,
      "b8e": 4343,
      "ac1": 4344,
      "bb1": 4345,
      "bc7": 4346,
      "bc9": 4347,
      "0x345": 4348,
      "5c6": 4349,
      "0x442": 4350,
      "663": 4351,
      "0x26e": 4352,
      "9a7": 4353,
      "e62": 4354,
      "0x591": 4355,
      "0x513": 4356,
      "b7b": 4357,
      "bd2": 4358,
      "0x795": 4359,
      "d91": 4360,
      "3a9": 4361,
      "da1": 4362,
      "daf": 4363,
      "3d5": 4364,
      "0x425": 4365,
      "0x426": 4366,
      "a91": 4367,
      "736": 4368,
      "a3b": 4369,
      "0x4630": 4370,
      "0x63010": 4371,
      "0x80808081": 4372,
      "e48": 4373,
      "0x563": 4374,
      "0x5fd": 4375,
      "0x562": 4376,
      "0x55b": 4377,
      "0020": 4378,
      "0x624": 4379,
      "0x6e7": 4380,
      "0x637": 4381,
      "0x6f2": 4382,
      "0x7fa": 4383,
      "0x722": 4384,
      "0x7e1": 4385,
      "0x8eb": 4386,
      "0x8f1": 4387,
      "0x867": 4388,
      "0x859": 4389,
      "0x8d2": 4390,
      "0xae0": 4391,
      "0xab0": 4392,
      "0xa4c": 4393,
      "0x9ac": 4394,
      "0x97c": 4395,
      "0x95c": 4396,
      "0xc68": 4397,
      "0xc000": 4398,
      "0xd62": 4399,
      "0x683": 4400,
      "0x80a": 4401,
      "0x789": 4402,
      "a8f": 4403,
      "f8f": 4404,
      "0x888": 4405,
      "a4a": 4406,
      "64a": 4407,
      "e46": 4408,
      "d42": 4409,
      "0xa80": 4410,
      "b13": 4411,
      "0x541": 4412,
      "0x497": 4413,
      "0x4cb": 4414,
      "53d": 4415,
      "b77": 4416,
      "0x33f": 4417,
      "215": 4418,
      "0x697": 4419,
      "0x576": 4420,
      "2af": 4421,
      "d92": 4422,
      "0x436": 4423,
      "2b6": 4424,
      "113": 4425,
      "11d": 4426,
      "a93": 4427,
      "db6": 4428,
      "a15": 4429,
      "0x8100000": 4430,
      "0x7aac": 4431,
      "936": 4432,
      "0x133d7": 4433,
      "0x217e4": 4434,
      "0x261b0": 4435,
      "0x284a0": 4436,
      "0x15bec": 4437,
      "0xbb068": 4438,
      "0x962b8": 4439,
      "618": 4440,
      "0x4b5": 4441,
      "0x5e6": 4442,
      "0x5e7": 4443,
      "0x654": 4444,
      "0x854": 4445,
      "0x8b4": 4446,
      "0x857": 4447,
      "0x8fa": 4448,
      "0x8b2": 4449,
      "0x869": 4450,
      "0x3098e": 4451,
      "0xa40": 4452,
      "0xa29": 4453,
      "0x9a9": 4454,
      "0x38b8": 4455,
      "0xb98": 4456,
      "0xf00": 4457,
      "0xf30": 4458,
      "0x589": 4459,
      "0x682": 4460,
      "381": 4461,
      "d03": 4462,
      "3c1": 4463,
      "0x884": 4464,
      "0x2cf": 4465,
      "dcd": 4466,
      "dcf": 4467,
      "0x26172": 4468,
      "0x644": 4469,
      "0x476": 4470,
      "ba6": 4471,
      "0x1e74": 4472,
      "191": 4473,
      "0x435": 4474,
      "441": 4475,
      "d35": 4476,
      "0x7238": 4477,
      "0x93bc": 4478,
      "0x15430": 4479,
      "0x2f020": 4480,
      "0x3d0c": 4481,
      "0x26f94": 4482,
      "ba4": 4483,
      "cpu": 4484,
      "id": 4485,
      "0x46b": 4486,
      "0x56a": 4487,
      "0x63f": 4488,
      "0x7bd": 4489,
      "0x8f9": 4490,
      "0x86a": 4491,
      "0xabb": 4492,
      "0xa93": 4493,
      "0x934": 4494,
      "0x9e5": 4495,
      "0x48d": 4496,
      "0xdcc": 4497,
      "0x604": 4498,
      "209": 4499,
      "0x7034": 4500,
      "0x1c10": 4501,
      "b8d": 4502,
      "b46": 4503,
      "b47": 4504,
      "0x2c34": 4505,
      "0x8007010": 4506,
      "bca": 4507,
      "d46": 4508,
      "0x31f": 4509,
      "0xb09": 4510,
      "b75": 4511,
      "0x8c9": 4512,
      "271": 4513,
      "27f": 4514,
      "0x744": 4515,
      "2ad": 4516,
      "d93": 4517,
      "315": 4518,
      "7a1": 4519,
      "7af": 4520,
      "a95": 4521,
      "a9b": 4522,
      "77f": 4523,
      "dbf": 4524,
      "32e": 4525,
      "73f": 4526,
      "0x2001f": 4527,
      "1d6": 4528,
      "7d5": 4529,
      "0xec40": 4530,
      "0x23df4": 4531,
      "cpuid": 4532,
      "0x4a1": 4533,
      "0x5dd": 4534,
      "0x565": 4535,
      "0x6ec": 4536,
      "0x6a4": 4537,
      "0x6e1": 4538,
      "0x6b9": 4539,
      "0x714": 4540,
      "0x717": 4541,
      "0x834": 4542,
      "0x822": 4543,
      "0xa38": 4544,
      "0x9a7": 4545,
      "0xbb3": 4546,
      "0x60d": 4547,
      "0xf000": 4548,
      "f0b": 4549,
      "bbb": 4550,
      "b15": 4551,
      "0x511": 4552,
      "b73": 4553,
      "275": 4554,
      "277": 4555,
      "39e": 4556,
      "4c1": 4557,
      "3af": 4558,
      "311": 4559,
      "0x6c4": 4560,
      "d2f": 4561,
      "2bf": 4562,
      "115": 4563,
      "771": 4564,
      "0x941": 4565,
      "0x5d3": 4566,
      "d3b": 4567,
      "13b": 4568,
      "0xc0048": 4569,
      "0x3d878": 4570,
      "0x4dc30": 4571,
      "0x6ed10": 4572,
      "0x55d": 4573,
      "0x76d": 4574,
      "0x7f9": 4575,
      "0x7ba": 4576,
      "0x7a3": 4577,
      "0x851": 4578,
      "0xa28": 4579,
      "0xa48": 4580,
      "0x9d4": 4581,
      "0x482": 4582,
      "0xda04": 4583,
      "0x582": 4584,
      "0x113d": 4585,
      "0x781": 4586,
      "0x15e87": 4587,
      "b0f": 4588,
      "50b": 4589,
      "a8a8": 4590,
      "90e": 4591,
      "f85": 4592,
      "bc3": 4593,
      "573": 4594,
      "0x1bf": 4595,
      "0x492": 4596,
      "b2b": 4597,
      "0x5c5": 4598,
      "bd1": 4599,
      "276": 4600,
      "293": 4601,
      "29e": 4602,
      "2ae": 4603,
      "3a1": 4604,
      "312": 4605,
      "795": 4606,
      "797": 4607,
      "0x949": 4608,
      "73e": 4609,
      "0x7a2": 4610,
      "91e": 4611,
      "0x17038": 4612,
      "1de": 4613,
      "0x56d0": 4614,
      "7d6": 4615,
      "divsd": 4616,
      "0xcfd8": 4617,
      "0x133ec": 4618,
      "0xa8898": 4619,
      "0xb10ae": 4620,
      "0x7a44c": 4621,
      "0x8c2fe": 4622,
      "03": 4623,
      "0x4ba": 4624,
      "0x4d1": 4625,
      "dd9": 4626,
      "0x66f": 4627,
      "0x8f7": 4628,
      "0x30f": 4629,
      "0xab8": 4630,
      "0xa23": 4631,
      "0xab3": 4632,
      "0xcda": 4633,
      "0xb54": 4634,
      "0x509": 4635,
      "0x50a": 4636,
      "0xdc8": 4637,
      "30f": 4638,
      "f8b": 4639,
      "f8e": 4640,
      "0x903": 4641,
      "0x1674c": 4642,
      "7c6": 4643,
      "0x989": 4644,
      "aaf": 4645,
      "61e": 4646,
      "396": 4647,
      "195": 4648,
      "0xac98": 4649,
      "0xf80": 4650,
      "7a9": 4651,
      "0x9c8": 4652,
      "0x356": 4653,
      "0x2be": 4654,
      "0xfffffffa": 4655,
      "a13": 4656,
      "a16": 4657,
      "0xfffffffffffffff": 4658,
      "1a6": 4659,
      "1df": 4660,
      "0x992c8": 4661,
      "9d6": 4662,
      "97e": 4663,
      "0x224c": 4664,
      "0x1821c": 4665,
      "fbefbe": 4666,
      "0x92bfc": 4667,
      "d30": 4668,
      "0x5f9": 4669,
      "0x622": 4670,
      "0x640c": 4671,
      "0x759": 4672,
      "0x8da": 4673,
      "subss": 4674,
      "00000000": 4675,
      "0x783": 4676,
      "0x29e": 4677,
      "cc6": 4678,
      "bcf": 4679,
      "0x988": 4680,
      "f1e": 4681,
      "0x542": 4682,
      "e32": 4683,
      "171": 4684,
      "0x5c1": 4685,
      "0x4c5": 4686,
      "0xd0b10": 4687,
      "0x2df": 4688,
      "0xa310": 4689,
      "0x3df": 4690,
      "d12": 4691,
      "39b": 4692,
      "3a7": 4693,
      "0xa1a": 4694,
      "19e": 4695,
      "7ad": 4696,
      "a7b": 4697,
      "0x42d": 4698,
      "12e": 4699,
      "a92": 4700,
      "79f": 4701,
      "73b": 4702,
      "7321": 4703,
      "25f": 4704,
      "91a": 4705,
      "0x5610": 4706,
      "7de": 4707,
      "adf": 4708,
      "0xc1a0": 4709,
      "0x38090": 4710,
      "0x464fc": 4711,
      "0x5f264": 4712,
      "0xb79ac": 4713,
      "0x80070103": 4714,
      "5b9": 4715,
      "0x4f6": 4716,
      "0x521": 4717,
      "0x66d": 4718,
      "0x7e6": 4719,
      "0x753": 4720,
      "0x837": 4721,
      "0x852": 4722,
      "0x853": 4723,
      "0x86b": 4724,
      "0x85b": 4725,
      "0xa78": 4726,
      "0xa3c": 4727,
      "0x9a4": 4728,
      "0x957": 4729,
      "0x91d": 4730,
      "0xc37": 4731,
      "0xd50": 4732,
      "0xf32": 4733,
      "0xf76": 4734,
      "0x70e52": 4735,
      "0x80c": 4736,
      "0x801c": 4737,
      "0x151a": 4738,
      "e83": 4739,
      "0x90c": 4740,
      "0x90d": 4741,
      "dc3": 4742,
      "0x1bfc4": 4743,
      "0x39e": 4744,
      "0x41b": 4745,
      "661": 4746,
      "0x1dbbd": 4747,
      "0x6428": 4748,
      "0x51d": 4749,
      "0x8ca": 4750,
      "219": 4751,
      "bd9": 4752,
      "0x74c": 4753,
      "399": 4754,
      "4c4": 4755,
      "4c7": 4756,
      "192": 4757,
      "193": 4758,
      "0x43d": 4759,
      "0xac6b0": 4760,
      "7a6": 4761,
      "992": 4762,
      "995": 4763,
      "a7e": 4764,
      "0x1808a": 4765,
      "a9f": 4766,
      "779": 4767,
      "326": 4768,
      "0x813": 4769,
      "91b": 4770,
      "0x5ad": 4771,
      "0xdd8": 4772,
      "d3e": 4773,
      "0x9a60": 4774,
      "0x8007065d": 4775,
      "0x10b67": 4776,
      "0xfffff7c1": 4777,
      "0xde40": 4778,
      "0xab69605e": 4779,
      "0x46668": 4780,
      "0xd1460": 4781,
      "0xac987321": 4782,
      "f78": 4783,
      "0x4b2": 4784,
      "0x4f3": 4785,
      "0x5e9": 4786,
      "0x559": 4787,
      "0x6ff": 4788,
      "0x6e2": 4789,
      "0x6f7": 4790,
      "0x7f4": 4791,
      "0x7f2": 4792,
      "0x8d9": 4793,
      "0x9a0": 4794,
      "0x9e2": 4795,
      "0x911": 4796,
      "0x912": 4797,
      "0xc38": 4798,
      "0xcd0": 4799,
      "0xd55": 4800,
      "0xd27": 4801,
      "0x60e": 4802,
      "0x787": 4803,
      "0x29f": 4804,
      "0x1644": 4805,
      "0x34f": 4806,
      "0x3c53c": 4807,
      "0x7c2": 4808,
      "0x47a": 4809,
      "0x32e": 4810,
      "0x4ca": 4811,
      "0x51f": 4812,
      "197": 4813,
      "793": 4814,
      "79e": 4815,
      "71a": 4816,
      "0x4664": 4817,
      "0xa614": 4818,
      "0xa9cc": 4819,
      "0x14350": 4820,
      "0x1b5b0": 4821,
      "0x1a7f0": 4822,
      "0x3da30": 4823,
      "0x7b770": 4824,
      "0x40694": 4825,
      "0x81000001": 4826,
      "0a": 4827,
      "0x35e": 4828,
      "0x4fe": 4829,
      "0x456": 4830,
      "0x5f5": 4831,
      "0x76b": 4832,
      "0x732": 4833,
      "0x72d": 4834,
      "0x8a4": 4835,
      "0x97a": 4836,
      "0xb2c": 4837,
      "0xb14": 4838,
      "dc1": 4839,
      "0xa0520": 4840,
      "f15": 4841,
      "0x44e": 4842,
      "0xb060": 4843,
      "0x647": 4844,
      "0x32f": 4845,
      "0x61d": 4846,
      "0x847": 4847,
      "0x849": 4848,
      "199": 4849,
      "19b": 4850,
      "0x2f6": 4851,
      "d26": 4852,
      "99b": 4853,
      "99d": 4854,
      "a9e": 4855,
      "c84": 4856,
      "seta": 4857,
      "93e": 4858,
      "0x3e78": 4859,
      "0x850020": 4860,
      "0xbb10": 4861,
      "0x3288": 4862,
      "0x1e9e4": 4863,
      "0x1f0001": 4864,
      "0xb2814": 4865,
      "1000": 4866,
      "0x3ffff": 4867,
      "0x5b3": 4868,
      "0x5da": 4869,
      "0x53d": 4870,
      "0x5a9": 4871,
      "dd1": 4872,
      "0x67c": 4873,
      "0x6e9": 4874,
      "0x6a9": 4875,
      "0x8ed": 4876,
      "0x8a3": 4877,
      "0xa18": 4878,
      "0xaf4": 4879,
      "0xa52": 4880,
      "0xa71": 4881,
      "0x922": 4882,
      "0x95a": 4883,
      "0x9b7": 4884,
      "0x92d": 4885,
      "0x91a": 4886,
      "0x50b": 4887,
      "0xde4": 4888,
      "0x70c": 4889,
      "0x68c": 4890,
      "0x88b": 4891,
      "0x2c54": 4892,
      "dc7": 4893,
      "bb3": 4894,
      "f13": 4895,
      "f1f": 4896,
      "0x545": 4897,
      "0x54a": 4898,
      "0x597": 4899,
      "0x59d": 4900,
      "0xc80": 4901,
      "0x775": 4902,
      "0x61a": 4903,
      "0x746": 4904,
      "29d": 4905,
      "2a7": 4906,
      "d19": 4907,
      "d2e": 4908,
      "99e": 4909,
      "0x9630": 4910,
      "11a": 4911,
      "0xfffffff7": 4912,
      "77b": 4913,
      "0x3bf": 4914,
      "0x4d5": 4915,
      "2de": 4916,
      "a3e": 4917,
      "0x4ad": 4918,
      "13e": 4919,
      "0xc0000005": 4920,
      "0x9a6c": 4921,
      "93b": 4922,
      "9de": 4923,
      "a2f": 4924,
      "0x7d54": 4925,
      "0x3d810": 4926,
      "0xd0000095": 4927,
      "0x7ffffefa": 4928,
      "0xc50e8": 4929,
      "0xc0000161": 4930,
      "0xa0338": 4931,
      "0xc000a0": 4932,
      "0x534": 4933,
      "0x5ba": 4934,
      "0x6ac": 4935,
      "0x663": 4936,
      "0x651": 4937,
      "0x661": 4938,
      "0x6bd": 4939,
      "0x632": 4940,
      "0x8e6": 4941,
      "0x8f2": 4942,
      "0x833": 4943,
      "0x83b": 4944,
      "0xad0": 4945,
      "0xa69": 4946,
      "0x9a3": 4947,
      "0x976": 4948,
      "0x38f": 4949,
      "0xb30": 4950,
      "0x503": 4951,
      "0x50f": 4952,
      "0xd30": 4953,
      "0xdc0": 4954,
      "0x1468": 4955,
      "0x885": 4956,
      "fca": 4957,
      "0xa08": 4958,
      "0x44b": 4959,
      "0x265d2": 4960,
      "0x54b": 4961,
      "0x649": 4962,
      "0x4c2": 4963,
      "ba7": 4964,
      "0x771": 4965,
      "0x741": 4966,
      "29b": 4967,
      "0x792": 4968,
      "39f": 4969,
      "316": 4970,
      "0xa1b": 4971,
      "0x6ca": 4972,
      "196": 4973,
      "d2b": 4974,
      "11e": 4975,
      "791": 4976,
      "91d": 4977,
      "0xea0": 4978,
      "1d5": 4979,
      "9d5": 4980,
      "0xba18": 4981,
      "0x1c3dc": 4982,
      "0xbb2ec": 4983,
      "0xa5064": 4984,
      "0x991d0": 4985,
      "0x9653c": 4986,
      "620": 4987,
      "0x5d2": 4988,
      "0x5be": 4989,
      "0x525": 4990,
      "0x666": 4991,
      "0x73c": 4992,
      "0x755": 4993,
      "0x75a": 4994,
      "0x895": 4995,
      "0xaab": 4996,
      "0xaa4": 4997,
      "0xa34": 4998,
      "0xa65": 4999
    },
    "merges": [
      [
        "0",
        "x"
      ],
      [
        "r",
        "d"
      ],
      [
        "m",
        "o"
      ],
      [
        "mo",
        "v"
      ],
      [
        "t",
        "r"
      ],
      [
        "p",
        "tr"
      ],
      [
        "o",
        "rd"
      ],
      [
        "w",
        "ord"
      ],
      [
        "a",
        "x"
      ],
      [
        "i",
        "n"
      ],
      [
        "in",
        "t"
      ],
      [
        "int",
        "3"
      ],
      [
        "q",
        "word"
      ],
      [
        "r",
        "ax"
      ],
      [
        "r",
        "s"
      ],
      [
        "c",
        "x"
      ],
      [
        "r",
        "b"
      ],
      [
        "]",
        ","
      ],
      [
        "r",
        "cx"
      ],
      [
        "rs",
        "p"
      ],
      [
        "r",
        "1"
      ],
      [
        "0x",
        "1"
      ],
      [
        "a",
        "l"
      ],
      [
        "0x",
        "2"
      ],
      [
        "e",
        "a"
      ],
      [
        "l",
        "ea"
      ],
      [
        "e",
        "ax"
      ],
      [
        "c",
        "al"
      ],
      [
        "cal",
        "l"
      ],
      [
        "rb",
        "p"
      ],
      [
        "rb",
        "x"
      ],
      [
        "d",
        "word"
      ],
      [
        "0x",
        "3"
      ],
      [
        "m",
        "p"
      ],
      [
        "t",
        "e"
      ],
      [
        "rd",
        "x"
      ],
      [
        "r",
        "8"
      ],
      [
        "i",
        "p"
      ],
      [
        "r",
        "ip"
      ],
      [
        "rd",
        "i"
      ],
      [
        "e",
        "d"
      ],
      [
        "0x",
        "4"
      ],
      [
        "f",
        "f"
      ],
      [
        "o",
        "p"
      ],
      [
        "s",
        "t"
      ],
      [
        "te",
        "st"
      ],
      [
        "rs",
        "i"
      ],
      [
        "0x2",
        "0"
      ],
      [
        "ed",
        "x"
      ],
      [
        "0x",
        "5"
      ],
      [
        "o",
        "r"
      ],
      [
        "0",
        "0"
      ],
      [
        "j",
        "e"
      ],
      [
        "c",
        "mp"
      ],
      [
        "r",
        "9"
      ],
      [
        "d",
        "d"
      ],
      [
        "e",
        "b"
      ],
      [
        "r1",
        "4"
      ],
      [
        "x",
        "or"
      ],
      [
        "0x",
        "6"
      ],
      [
        "a",
        "dd"
      ],
      [
        "j",
        "mp"
      ],
      [
        "m",
        "m"
      ],
      [
        "0x",
        "7"
      ],
      [
        "x",
        "mm"
      ],
      [
        "e",
        "cx"
      ],
      [
        "j",
        "n"
      ],
      [
        "s",
        "h"
      ],
      [
        "0x1",
        "0"
      ],
      [
        "0x",
        "8"
      ],
      [
        "eb",
        "x"
      ],
      [
        "0x3",
        "0"
      ],
      [
        "jn",
        "e"
      ],
      [
        "n",
        "op"
      ],
      [
        "r1",
        "5"
      ],
      [
        "p",
        "u"
      ],
      [
        "p",
        "op"
      ],
      [
        "pu",
        "sh"
      ],
      [
        "s",
        "u"
      ],
      [
        "su",
        "b"
      ],
      [
        "r8",
        "d"
      ],
      [
        "b",
        "y"
      ],
      [
        "by",
        "te"
      ],
      [
        "ff",
        "ff"
      ],
      [
        "0x1",
        "8"
      ],
      [
        "0x2",
        "8"
      ],
      [
        "0x4",
        "0"
      ],
      [
        "r1",
        "2"
      ],
      [
        "0x",
        "a"
      ],
      [
        "0x",
        "9"
      ],
      [
        "r9",
        "d"
      ],
      [
        "ed",
        "i"
      ],
      [
        "r1",
        "3"
      ],
      [
        "0x3",
        "8"
      ],
      [
        "e",
        "t"
      ],
      [
        "r1",
        "1"
      ],
      [
        "r",
        "et"
      ],
      [
        "1",
        "0"
      ],
      [
        "0x",
        "c"
      ],
      [
        "a",
        "n"
      ],
      [
        "an",
        "d"
      ],
      [
        "xmm",
        "0"
      ],
      [
        "0x",
        "b"
      ],
      [
        "0x5",
        "0"
      ],
      [
        "p",
        "s"
      ],
      [
        "s",
        "i"
      ],
      [
        "xmm",
        "word"
      ],
      [
        "0x4",
        "8"
      ],
      [
        "r1",
        "0"
      ],
      [
        "e",
        "si"
      ],
      [
        "0x",
        "d"
      ],
      [
        "0x6",
        "0"
      ],
      [
        "0x",
        "f"
      ],
      [
        "0x5",
        "8"
      ],
      [
        "0x",
        "e"
      ],
      [
        "2",
        "0"
      ],
      [
        "u",
        "ps"
      ],
      [
        "mov",
        "ups"
      ],
      [
        "0x7",
        "0"
      ],
      [
        "00",
        "00"
      ],
      [
        "z",
        "x"
      ],
      [
        "mov",
        "zx"
      ],
      [
        "0x6",
        "8"
      ],
      [
        "ffff",
        "ffff"
      ],
      [
        "r14",
        "d"
      ],
      [
        "0x1",
        "4"
      ],
      [
        "0",
        "10"
      ],
      [
        "0x1",
        "1"
      ],
      [
        "0x1",
        "3"
      ],
      [
        "r15",
        "d"
      ],
      [
        "r12",
        "d"
      ],
      [
        "0x8",
        "0"
      ],
      [
        "0x1",
        "2"
      ],
      [
        "j",
        "b"
      ],
      [
        "xmm",
        "1"
      ],
      [
        "0x7",
        "8"
      ],
      [
        "in",
        "c"
      ],
      [
        "0x1",
        "5"
      ],
      [
        "0x1",
        "9"
      ],
      [
        "0x8",
        "00"
      ],
      [
        "a",
        "0"
      ],
      [
        "0x1",
        "c"
      ],
      [
        "r13",
        "d"
      ],
      [
        "6",
        "0"
      ],
      [
        "0x1",
        "7"
      ],
      [
        "e",
        "c"
      ],
      [
        "jn",
        "s"
      ],
      [
        "mov",
        "s"
      ],
      [
        "eb",
        "p"
      ],
      [
        "6",
        "8"
      ],
      [
        "e",
        "0"
      ],
      [
        "4",
        "0"
      ],
      [
        "3",
        "0"
      ],
      [
        "b",
        "0"
      ],
      [
        "0x1",
        "f"
      ],
      [
        "7",
        "0"
      ],
      [
        "5",
        "0"
      ],
      [
        "0x2",
        "9"
      ],
      [
        "j",
        "a"
      ],
      [
        "c",
        "c"
      ],
      [
        "a",
        "8"
      ],
      [
        "9",
        "0"
      ],
      [
        "j",
        "s"
      ],
      [
        "b",
        "8"
      ],
      [
        "3",
        "8"
      ],
      [
        "e",
        "8"
      ],
      [
        "7",
        "8"
      ],
      [
        "f",
        "8"
      ],
      [
        "2",
        "8"
      ],
      [
        "xor",
        "ps"
      ],
      [
        "d",
        "0"
      ],
      [
        "4",
        "8"
      ],
      [
        "9",
        "c"
      ],
      [
        "0x2",
        "1"
      ],
      [
        "r11",
        "d"
      ],
      [
        "r10",
        "d"
      ],
      [
        "a",
        "b"
      ],
      [
        "d",
        "8"
      ],
      [
        "c",
        "mov"
      ],
      [
        "5",
        "4"
      ],
      [
        "3",
        "c"
      ],
      [
        "0x",
        "ffffffff"
      ],
      [
        "0x2",
        "7"
      ],
      [
        "0x9",
        "0"
      ],
      [
        "f",
        "0"
      ],
      [
        "j",
        "l"
      ],
      [
        "d",
        "q"
      ],
      [
        "0x8",
        "8"
      ],
      [
        "0x1",
        "6"
      ],
      [
        "5",
        "8"
      ],
      [
        "a",
        "c"
      ],
      [
        "9",
        "8"
      ],
      [
        "7",
        "c"
      ],
      [
        "0x2",
        "4"
      ],
      [
        "1",
        "8"
      ],
      [
        "movs",
        "x"
      ],
      [
        "2",
        "c"
      ],
      [
        "1",
        "4"
      ],
      [
        "a",
        "4"
      ],
      [
        "6",
        "4"
      ],
      [
        "b",
        "4"
      ],
      [
        "6",
        "c"
      ],
      [
        "2",
        "4"
      ],
      [
        "mov",
        "dq"
      ],
      [
        "f",
        "4"
      ],
      [
        "7",
        "4"
      ],
      [
        "0x2",
        "c"
      ],
      [
        "d",
        "c"
      ],
      [
        "0x800",
        "7"
      ],
      [
        "e",
        "4"
      ],
      [
        "f",
        "c"
      ],
      [
        "b",
        "b"
      ],
      [
        "1",
        "c"
      ],
      [
        "b",
        "c"
      ],
      [
        "0x3",
        "4"
      ],
      [
        "9",
        "4"
      ],
      [
        "jb",
        "e"
      ],
      [
        "5",
        "c"
      ],
      [
        "00",
        "0"
      ],
      [
        "3",
        "4"
      ],
      [
        "5",
        "7"
      ],
      [
        "n",
        "e"
      ],
      [
        "d",
        "4"
      ],
      [
        "movsx",
        "d"
      ],
      [
        "0xa",
        "0"
      ],
      [
        "d",
        "i"
      ],
      [
        "0x9",
        "8"
      ],
      [
        "a",
        "a"
      ],
      [
        "0x1",
        "b"
      ],
      [
        "0x3",
        "9"
      ],
      [
        "f",
        "1"
      ],
      [
        "0x3",
        "1"
      ],
      [
        "0x2",
        "2"
      ],
      [
        "ffff",
        "ff"
      ],
      [
        "m",
        "u"
      ],
      [
        "mu",
        "l"
      ],
      [
        "0x4",
        "1"
      ],
      [
        "d",
        "l"
      ],
      [
        "0x3",
        "c"
      ],
      [
        "c",
        "l"
      ],
      [
        "0x4",
        "4"
      ],
      [
        "0xa",
        "8"
      ],
      [
        "0xc",
        "0000"
      ],
      [
        "6",
        "6"
      ],
      [
        "sh",
        "r"
      ],
      [
        "b",
        "l"
      ],
      [
        "0x2",
        "5"
      ],
      [
        "0x1",
        "d"
      ],
      [
        "2",
        "3"
      ],
      [
        "0x1",
        "a"
      ],
      [
        "ja",
        "e"
      ],
      [
        "f",
        "e"
      ],
      [
        "sh",
        "l"
      ],
      [
        "0x2",
        "3"
      ],
      [
        "0xb",
        "0"
      ],
      [
        "jl",
        "e"
      ],
      [
        "0x2",
        "6"
      ],
      [
        "9",
        "a"
      ],
      [
        "b",
        "1"
      ],
      [
        "e",
        "6"
      ],
      [
        "0x3",
        "7"
      ],
      [
        "0x5",
        "4"
      ],
      [
        "e",
        "5"
      ],
      [
        "f",
        "a"
      ],
      [
        "2",
        "2"
      ],
      [
        "e",
        "1"
      ],
      [
        "0x6",
        "4"
      ],
      [
        "e",
        "9"
      ],
      [
        "e",
        "7"
      ],
      [
        "e",
        "3"
      ],
      [
        "i",
        "mul"
      ],
      [
        "6",
        "3"
      ],
      [
        "0x7",
        "c"
      ],
      [
        "f",
        "d"
      ],
      [
        "0x4",
        "7"
      ],
      [
        "0x4",
        "9"
      ],
      [
        "0x2",
        "a"
      ],
      [
        "b",
        "2"
      ],
      [
        "5",
        "5"
      ],
      [
        "6",
        "9"
      ],
      [
        "6",
        "d"
      ],
      [
        "e",
        "2"
      ],
      [
        "5",
        "d"
      ],
      [
        "movdq",
        "u"
      ],
      [
        "1",
        "7"
      ],
      [
        "3",
        "7"
      ],
      [
        "6",
        "7"
      ],
      [
        "c",
        "k"
      ],
      [
        "0x5",
        "c"
      ],
      [
        "6",
        "2"
      ],
      [
        "l",
        "o"
      ],
      [
        "lo",
        "ck"
      ],
      [
        "f",
        "7"
      ],
      [
        "di",
        "l"
      ],
      [
        "0xc",
        "0"
      ],
      [
        "5",
        "1"
      ],
      [
        "b",
        "9"
      ],
      [
        "0x3",
        "2"
      ],
      [
        "0x6",
        "7"
      ],
      [
        "f",
        "2"
      ],
      [
        "0x4",
        "c"
      ],
      [
        "0xd",
        "0"
      ],
      [
        "f",
        "9"
      ],
      [
        "0x3",
        "a"
      ],
      [
        "6",
        "1"
      ],
      [
        "3",
        "3"
      ],
      [
        "0xf",
        "0"
      ],
      [
        "5",
        "9"
      ],
      [
        "0x5",
        "9"
      ],
      [
        "f",
        "b"
      ],
      [
        "r8",
        "b"
      ],
      [
        "0x2",
        "d"
      ],
      [
        "0xb",
        "8"
      ],
      [
        "f",
        "3"
      ],
      [
        "j",
        "g"
      ],
      [
        "5",
        "2"
      ],
      [
        "0x5",
        "1"
      ],
      [
        "5",
        "a"
      ],
      [
        "5",
        "3"
      ],
      [
        "0xc",
        "8"
      ],
      [
        "mov",
        "ab"
      ],
      [
        "movab",
        "s"
      ],
      [
        "6",
        "a"
      ],
      [
        "0xe",
        "0"
      ],
      [
        "b",
        "7"
      ],
      [
        "0x8",
        "c"
      ],
      [
        "d",
        "7"
      ],
      [
        "0xffffffff",
        "ffffffff"
      ],
      [
        "movdq",
        "a"
      ],
      [
        "b",
        "3"
      ],
      [
        "0xd",
        "8"
      ],
      [
        "0x1",
        "00"
      ],
      [
        "b",
        "a"
      ],
      [
        "0xa",
        "3"
      ],
      [
        "d",
        "ec"
      ],
      [
        "0x3",
        "3"
      ],
      [
        "0x7",
        "7"
      ],
      [
        "0",
        "4"
      ],
      [
        "2",
        "1"
      ],
      [
        "b",
        "d"
      ],
      [
        "0x3",
        "d"
      ],
      [
        "0x6",
        "1"
      ],
      [
        "2",
        "7"
      ],
      [
        "5",
        "010"
      ],
      [
        "6",
        "5"
      ],
      [
        "0x6",
        "9"
      ],
      [
        "0x1",
        "10"
      ],
      [
        "0x7",
        "4"
      ],
      [
        "2",
        "9"
      ],
      [
        "0x7",
        "1"
      ],
      [
        "0x4",
        "00"
      ],
      [
        "f",
        "5"
      ],
      [
        "0x5",
        "7"
      ],
      [
        "0x7",
        "9"
      ],
      [
        "2",
        "a"
      ],
      [
        "ne",
        "g"
      ],
      [
        "0x7",
        "f"
      ],
      [
        "d",
        "1"
      ],
      [
        "0x3",
        "f"
      ],
      [
        "3",
        "9"
      ],
      [
        "d",
        "9"
      ],
      [
        "4",
        "c"
      ],
      [
        "3",
        "a"
      ],
      [
        "0x8007",
        "00"
      ],
      [
        "3",
        "1"
      ],
      [
        "si",
        "l"
      ],
      [
        "movs",
        "d"
      ],
      [
        "0x8007",
        "000"
      ],
      [
        "d",
        "a"
      ],
      [
        "0xa",
        "1"
      ],
      [
        "0x1",
        "e"
      ],
      [
        "0x6",
        "c"
      ],
      [
        "0x3",
        "6"
      ],
      [
        "0x8",
        "4"
      ],
      [
        "s",
        "bb"
      ],
      [
        "b",
        "p"
      ],
      [
        "1",
        "9"
      ],
      [
        "0x2",
        "f"
      ],
      [
        "5",
        "e"
      ],
      [
        "cmov",
        "ne"
      ],
      [
        "a",
        "r"
      ],
      [
        "s",
        "ar"
      ],
      [
        "0xe",
        "8"
      ],
      [
        "6",
        "b"
      ],
      [
        "5",
        "b"
      ],
      [
        "d",
        "2"
      ],
      [
        "0x4",
        "3"
      ],
      [
        "0xa",
        "c"
      ],
      [
        "0x15",
        "0"
      ],
      [
        "4",
        "4"
      ],
      [
        "r9",
        "b"
      ],
      [
        "0xf",
        "8"
      ],
      [
        "e",
        "e"
      ],
      [
        "7",
        "a"
      ],
      [
        "0xf",
        "9"
      ],
      [
        "0x8007000",
        "e"
      ],
      [
        "0x5",
        "5"
      ],
      [
        "f",
        "6"
      ],
      [
        "2",
        "b"
      ],
      [
        "r",
        "or"
      ],
      [
        "0x9",
        "c"
      ],
      [
        "cmov",
        "e"
      ],
      [
        "0xc0000",
        "0"
      ],
      [
        "9",
        "9"
      ],
      [
        "0x9",
        "6"
      ],
      [
        "0x3",
        "5"
      ],
      [
        "3",
        "d"
      ],
      [
        "1",
        "1"
      ],
      [
        "0x2",
        "b"
      ],
      [
        "0x8",
        "d"
      ],
      [
        "0x1",
        "20"
      ],
      [
        "a",
        "7"
      ],
      [
        "0x800700",
        "57"
      ],
      [
        "0x",
        "ffffff"
      ],
      [
        "0000",
        "00"
      ],
      [
        "0x4",
        "2"
      ],
      [
        "cmov",
        "a"
      ],
      [
        "d",
        "x"
      ],
      [
        "6",
        "e"
      ],
      [
        "0x6",
        "f"
      ],
      [
        "0x18",
        "0"
      ],
      [
        "a",
        "ps"
      ],
      [
        "mov",
        "aps"
      ],
      [
        "b",
        "x"
      ],
      [
        "1",
        "2"
      ],
      [
        "a",
        "9"
      ],
      [
        "7",
        "7"
      ],
      [
        "0x3",
        "b"
      ],
      [
        "20",
        "10"
      ],
      [
        "8",
        "0"
      ],
      [
        "0xa3",
        "010"
      ],
      [
        "f",
        "010"
      ],
      [
        "6",
        "f"
      ],
      [
        "d",
        "b"
      ],
      [
        "3",
        "2"
      ],
      [
        "e",
        "f"
      ],
      [
        "c",
        "0"
      ],
      [
        "a",
        "1"
      ],
      [
        "0x3",
        "a0"
      ],
      [
        "0x800",
        "04"
      ],
      [
        "0x80004",
        "00"
      ],
      [
        "a8",
        "0"
      ],
      [
        "0x4",
        "d"
      ],
      [
        "0x13",
        "0"
      ],
      [
        "7",
        "9"
      ],
      [
        "r14",
        "b"
      ],
      [
        "5",
        "6"
      ],
      [
        "0x9",
        "4"
      ],
      [
        "0xa",
        "5010"
      ],
      [
        "7",
        "3"
      ],
      [
        "0x12",
        "8"
      ],
      [
        "0x11",
        "8"
      ],
      [
        "2",
        "d"
      ],
      [
        "r15",
        "b"
      ],
      [
        "a",
        "3"
      ],
      [
        "r12",
        "b"
      ],
      [
        "0x5",
        "d"
      ],
      [
        "0x5",
        "f"
      ],
      [
        "0x8",
        "1"
      ],
      [
        "0xf9",
        "010"
      ],
      [
        "b",
        "t"
      ],
      [
        "b",
        "e"
      ],
      [
        "7",
        "1"
      ],
      [
        "c",
        "4"
      ],
      [
        "c",
        "8"
      ],
      [
        "jg",
        "e"
      ],
      [
        "0x14",
        "0"
      ],
      [
        "0xd",
        "a"
      ],
      [
        "2",
        "5"
      ],
      [
        "0x400",
        "10"
      ],
      [
        "0x2",
        "e"
      ],
      [
        "0x10",
        "8"
      ],
      [
        "0x7",
        "38"
      ],
      [
        "0x",
        "eb"
      ],
      [
        "3",
        "f"
      ],
      [
        "0x7",
        "a"
      ],
      [
        "x",
        "add"
      ],
      [
        "7",
        "b"
      ],
      [
        "5",
        "f"
      ],
      [
        "9",
        "1"
      ],
      [
        ":",
        "["
      ],
      [
        "0xb",
        "4"
      ],
      [
        "g",
        "s"
      ],
      [
        "0xa",
        "4"
      ],
      [
        "0x5",
        "a"
      ],
      [
        "0x3a0",
        "20"
      ],
      [
        "0x",
        "dd"
      ],
      [
        "bp",
        "l"
      ],
      [
        "d",
        "3"
      ],
      [
        "0x20",
        "0"
      ],
      [
        "0x6",
        "6"
      ],
      [
        "10",
        "10"
      ],
      [
        "0x8007",
        "0000"
      ],
      [
        "0x17",
        "0"
      ],
      [
        "r13",
        "b"
      ],
      [
        "0x",
        "ea"
      ],
      [
        "b",
        "6"
      ],
      [
        "0x4",
        "a"
      ],
      [
        "0xffffffff",
        "ffffff"
      ],
      [
        "c",
        "h"
      ],
      [
        "9",
        "5"
      ],
      [
        "0x29",
        "8"
      ],
      [
        "0xa",
        "f010"
      ],
      [
        "1",
        "a"
      ],
      [
        "0x4",
        "5"
      ],
      [
        "0x7",
        "b"
      ],
      [
        "7",
        "f"
      ],
      [
        "0x8",
        "2"
      ],
      [
        "0x13",
        "8"
      ],
      [
        "0x1",
        "60"
      ],
      [
        "s",
        "et"
      ],
      [
        "0x7",
        "2"
      ],
      [
        "0x5",
        "3"
      ],
      [
        "x",
        "ch"
      ],
      [
        "0xa1",
        "20"
      ],
      [
        "xch",
        "g"
      ],
      [
        "0x9",
        "d"
      ],
      [
        "0x4",
        "6"
      ],
      [
        "1",
        "d"
      ],
      [
        "0x10",
        "4"
      ],
      [
        "0x5",
        "6"
      ],
      [
        "9",
        "2"
      ],
      [
        "b",
        "5"
      ],
      [
        "0x7",
        "ffffff"
      ],
      [
        "0x4",
        "f1"
      ],
      [
        "0x6",
        "2"
      ],
      [
        "0x",
        "ff"
      ],
      [
        "r15",
        "w"
      ],
      [
        "0000",
        "000"
      ],
      [
        "1",
        "3"
      ],
      [
        "1",
        "5"
      ],
      [
        "0x9",
        "9"
      ],
      [
        "7",
        "d"
      ],
      [
        "0x738",
        "7c"
      ],
      [
        "0x18",
        "8"
      ],
      [
        "0xc0000",
        "00"
      ],
      [
        "0xb",
        "c"
      ],
      [
        "0x19",
        "0"
      ],
      [
        "r8",
        "w"
      ],
      [
        "0x6",
        "3"
      ],
      [
        "7",
        "2"
      ],
      [
        "0x6",
        "d"
      ],
      [
        "0x15",
        "8"
      ],
      [
        "7",
        "6"
      ],
      [
        "b",
        "f"
      ],
      [
        "0x10",
        "2"
      ],
      [
        "0x",
        "ed"
      ],
      [
        "0x14",
        "8"
      ],
      [
        "0x27",
        "010"
      ],
      [
        "0x5",
        "a80"
      ],
      [
        "0x9",
        "a"
      ],
      [
        "9",
        "3"
      ],
      [
        "r14",
        "w"
      ],
      [
        "r12",
        "w"
      ],
      [
        "xmm",
        "2"
      ],
      [
        "0x9",
        "3"
      ],
      [
        "0x6",
        "5"
      ],
      [
        "0x1",
        "e0"
      ],
      [
        "0x1",
        "000"
      ],
      [
        "n",
        "o"
      ],
      [
        "0x1",
        "68"
      ],
      [
        "no",
        "t"
      ],
      [
        "0xa",
        "e"
      ],
      [
        "9",
        "d"
      ],
      [
        "0x17",
        "8"
      ],
      [
        "cc",
        "cc"
      ],
      [
        "a",
        "2"
      ],
      [
        "4",
        "20"
      ],
      [
        "0x19",
        "8"
      ],
      [
        "0x5",
        "e"
      ],
      [
        "0x7",
        "d"
      ],
      [
        "0xc",
        "c"
      ],
      [
        "0x3",
        "00"
      ],
      [
        "0xb",
        "3"
      ],
      [
        "s",
        "e"
      ],
      [
        "0xf0",
        "f8"
      ],
      [
        "0x8d",
        "54"
      ],
      [
        "0x7",
        "3"
      ],
      [
        "0x8000400",
        "5"
      ],
      [
        "0x10",
        "7"
      ],
      [
        "se",
        "te"
      ],
      [
        "0x4",
        "f"
      ],
      [
        "0x5",
        "b"
      ],
      [
        "0x800",
        "70"
      ],
      [
        "0xc",
        "4"
      ],
      [
        "a",
        "d"
      ],
      [
        "0xe",
        "2"
      ],
      [
        "0xa",
        "b"
      ],
      [
        "0x9",
        "1"
      ],
      [
        "cmp",
        "xchg"
      ],
      [
        "9",
        "7"
      ],
      [
        "0x8",
        "7"
      ],
      [
        "0x7",
        "5"
      ],
      [
        "set",
        "ne"
      ],
      [
        "0x3",
        "e"
      ],
      [
        "0xc0000",
        "420"
      ],
      [
        "0x12",
        "4"
      ],
      [
        "0x1",
        "a0"
      ],
      [
        "0x4",
        "b"
      ],
      [
        "0x4",
        "2010"
      ],
      [
        "0x9",
        "2"
      ],
      [
        "0x20",
        "8"
      ],
      [
        "0x13",
        "5010"
      ],
      [
        "0x7",
        "6"
      ],
      [
        "9",
        "6"
      ],
      [
        "3",
        "e"
      ],
      [
        "0xb",
        "9a"
      ],
      [
        "0x1c",
        "0"
      ],
      [
        "0xda",
        "10"
      ],
      [
        "9",
        "b"
      ],
      [
        "0x8",
        "a"
      ],
      [
        "1",
        "f"
      ],
      [
        "8",
        "4"
      ],
      [
        "2",
        "6"
      ],
      [
        "0x800",
        "0"
      ],
      [
        "0xb9a",
        "78"
      ],
      [
        "0xa",
        "7"
      ],
      [
        "0xb",
        "9"
      ],
      [
        "xmm",
        "6"
      ],
      [
        "0x2",
        "40"
      ],
      [
        "3",
        "6"
      ],
      [
        "a",
        "6"
      ],
      [
        "0x1",
        "b0"
      ],
      [
        "s",
        "d"
      ],
      [
        "50",
        "4"
      ],
      [
        "0x1",
        "d0"
      ],
      [
        "0x7c",
        "4"
      ],
      [
        "a",
        "e"
      ],
      [
        "1",
        "6"
      ],
      [
        "d",
        "6"
      ],
      [
        "0x2",
        "70"
      ],
      [
        "1",
        "b"
      ],
      [
        "0x2",
        "50"
      ],
      [
        "2",
        "e"
      ],
      [
        "0x14",
        "b"
      ],
      [
        "0x4",
        "e"
      ],
      [
        "0x10",
        "e"
      ],
      [
        "d",
        "f"
      ],
      [
        "0x2",
        "60"
      ],
      [
        "r9",
        "w"
      ],
      [
        "1",
        "e"
      ],
      [
        "0x4f1",
        "68"
      ],
      [
        "0x4",
        "1010"
      ],
      [
        "0x1f",
        "0"
      ],
      [
        "7",
        "5"
      ],
      [
        "r13",
        "w"
      ],
      [
        "cc",
        "0"
      ],
      [
        "d",
        "e"
      ],
      [
        "0x13",
        "2"
      ],
      [
        "0xd",
        "c"
      ],
      [
        "40",
        "4"
      ],
      [
        "0xe",
        "c"
      ],
      [
        "0xae",
        "10"
      ],
      [
        "7",
        "e"
      ],
      [
        "0x",
        "ffff"
      ],
      [
        "0xd",
        "4"
      ],
      [
        "2",
        "f"
      ],
      [
        "8",
        "c"
      ],
      [
        "0x2",
        "28"
      ],
      [
        "a",
        "5"
      ],
      [
        "0x3",
        "e8"
      ],
      [
        "0x7",
        "78"
      ],
      [
        "9",
        "f"
      ],
      [
        "0x8",
        "6"
      ],
      [
        "3",
        "b"
      ],
      [
        "0xa",
        "2"
      ],
      [
        "0xe",
        "4"
      ],
      [
        "0xc000000",
        "d"
      ],
      [
        "0x9",
        "b"
      ],
      [
        "0x5",
        "2"
      ],
      [
        "0x6",
        "a"
      ],
      [
        "3",
        "5"
      ],
      [
        "0x2",
        "30"
      ],
      [
        "0xb",
        "a"
      ],
      [
        "0x8",
        "5"
      ],
      [
        "0000",
        "0"
      ],
      [
        "d",
        "5"
      ],
      [
        "0x1",
        "e8"
      ],
      [
        "0x7ffffff",
        "f"
      ],
      [
        "8",
        "8"
      ],
      [
        "0x12",
        "c"
      ],
      [
        "r10",
        "b"
      ],
      [
        "9",
        "e"
      ],
      [
        "0xa",
        "6"
      ],
      [
        "5",
        "90"
      ],
      [
        "0xb",
        "1"
      ],
      [
        "bt",
        "s"
      ],
      [
        "0x2",
        "10"
      ],
      [
        "movs",
        "s"
      ],
      [
        "0x3a",
        "010"
      ],
      [
        "s",
        "s"
      ],
      [
        "0xb",
        "2"
      ],
      [
        "aa",
        "aa"
      ],
      [
        "dc",
        "0"
      ],
      [
        "0x6",
        "b"
      ],
      [
        "0x8",
        "9"
      ],
      [
        "0xf",
        "c"
      ],
      [
        "0x1",
        "d8"
      ],
      [
        "0xc",
        "7"
      ],
      [
        "xmm",
        "3"
      ],
      [
        "0x28",
        "0"
      ],
      [
        "0x12",
        "3"
      ],
      [
        "0x1c",
        "8"
      ],
      [
        "0x7",
        "e"
      ],
      [
        "0xffffffffffffff",
        "fe"
      ],
      [
        "0x1",
        "a8"
      ],
      [
        "0x13",
        "4"
      ],
      [
        "0x8",
        "3"
      ],
      [
        "0x1",
        "b8"
      ],
      [
        "0x84",
        "ac"
      ],
      [
        "0xd",
        "9"
      ],
      [
        "0xa",
        "9"
      ],
      [
        "0x12",
        "1"
      ],
      [
        "0x9",
        "7"
      ],
      [
        "48",
        "8"
      ],
      [
        "a",
        "f"
      ],
      [
        "0x1c",
        "010"
      ],
      [
        "0xa",
        "5"
      ],
      [
        "0xf",
        "4"
      ],
      [
        "0x55",
        "f4"
      ],
      [
        "0xb",
        "b1"
      ],
      [
        "20",
        "8"
      ],
      [
        "0xc",
        "b"
      ],
      [
        "0xb",
        "b"
      ],
      [
        "0x8000",
        "ffff"
      ],
      [
        "0xb",
        "cc0"
      ],
      [
        "0xa",
        "a"
      ],
      [
        "0x9",
        "5"
      ],
      [
        "0x8",
        "b"
      ],
      [
        "0x6",
        "e"
      ],
      [
        "0x2",
        "20"
      ],
      [
        "0x150",
        "b0"
      ],
      [
        "0x96",
        "9c"
      ],
      [
        "b",
        "tr"
      ],
      [
        "0x2",
        "38"
      ],
      [
        "0x2",
        "58"
      ],
      [
        "di",
        "v"
      ],
      [
        "0x8c",
        "504"
      ],
      [
        "0xc00000",
        "17"
      ],
      [
        "0x107",
        "3c"
      ],
      [
        "0x1",
        "eb"
      ],
      [
        "r11",
        "b"
      ],
      [
        "0x47",
        "010"
      ],
      [
        "b8",
        "0"
      ],
      [
        "0x15",
        "4"
      ],
      [
        "0xe2",
        "f8"
      ],
      [
        "c",
        "v"
      ],
      [
        "cv",
        "t"
      ],
      [
        "0x7",
        "f1"
      ],
      [
        "0xc",
        "1"
      ],
      [
        "0x96",
        "404"
      ],
      [
        "0xbb1",
        "b4"
      ],
      [
        "68",
        "4"
      ],
      [
        "0x21",
        "8"
      ],
      [
        "bc",
        "4"
      ],
      [
        "0x1f",
        "8"
      ],
      [
        "0xf",
        "3"
      ],
      [
        "0xb",
        "7"
      ],
      [
        "0x2",
        "68"
      ],
      [
        "0xc",
        "9"
      ],
      [
        "0x14",
        "c"
      ],
      [
        "0x8",
        "f"
      ],
      [
        "0x10",
        "d"
      ],
      [
        "0x14b",
        "010"
      ],
      [
        "0x2a",
        "20"
      ],
      [
        "0x11",
        "c"
      ],
      [
        "0x13",
        "c"
      ],
      [
        "0",
        "8"
      ],
      [
        "0000",
        "0000000"
      ],
      [
        "0xd",
        "b"
      ],
      [
        "0x298",
        "74"
      ],
      [
        "0x11",
        "4"
      ],
      [
        "0x2",
        "48"
      ],
      [
        "0xc",
        "5"
      ],
      [
        "0xe",
        "9"
      ],
      [
        "0x3",
        "b2"
      ],
      [
        "0x10",
        "1"
      ],
      [
        "2",
        "9c"
      ],
      [
        "0x2",
        "f0"
      ],
      [
        "0x8",
        "000000"
      ],
      [
        "0x9",
        "f"
      ],
      [
        "0x3",
        "30"
      ],
      [
        "2",
        "60"
      ],
      [
        "0x132",
        "98"
      ],
      [
        "0xf",
        "d"
      ],
      [
        "0xf",
        "2010"
      ],
      [
        "68",
        "8"
      ],
      [
        "0x2",
        "a0"
      ],
      [
        "0xc",
        "f010"
      ],
      [
        "0xc",
        "6"
      ],
      [
        "0x54",
        "590"
      ],
      [
        "0x300",
        "10"
      ],
      [
        "dd",
        "0"
      ],
      [
        "0x3c",
        "0"
      ],
      [
        "0x2",
        "78"
      ],
      [
        "0xc",
        "3"
      ],
      [
        "0x17",
        "a"
      ],
      [
        "0x2",
        "b0"
      ],
      [
        "0x8",
        "18"
      ],
      [
        "0xd",
        "5"
      ],
      [
        "0x1",
        "000000"
      ],
      [
        "0xd",
        "3"
      ],
      [
        "0xe",
        "1"
      ],
      [
        "0x20",
        "c"
      ],
      [
        "eb",
        "c"
      ],
      [
        "0xe",
        "6"
      ],
      [
        "0xe",
        "f"
      ],
      [
        "0x66",
        "3c"
      ],
      [
        "0x11",
        "d"
      ],
      [
        "0x10",
        "c"
      ],
      [
        "0x2",
        "a8"
      ],
      [
        "0x4",
        "ec"
      ],
      [
        "0xc",
        "00"
      ],
      [
        "2",
        "a0"
      ],
      [
        "0xc",
        "f"
      ],
      [
        "c",
        "dq"
      ],
      [
        "0x4",
        "5d"
      ],
      [
        "0xf",
        "7"
      ],
      [
        "0xffffff",
        "fe"
      ],
      [
        "48",
        "4"
      ],
      [
        "0x10",
        "1010"
      ],
      [
        "0x20",
        "a"
      ],
      [
        "r10",
        "w"
      ],
      [
        "0x12",
        "b"
      ],
      [
        "0x15",
        "c"
      ],
      [
        "0x10e",
        "14"
      ],
      [
        "0xb",
        "f"
      ],
      [
        "0xd",
        "6"
      ],
      [
        "0x1e0",
        "4"
      ],
      [
        "0x1",
        "ff"
      ],
      [
        "ffffffff",
        "ffffff"
      ],
      [
        "0xa",
        "d"
      ],
      [
        "10",
        "c"
      ],
      [
        "0xa",
        "f"
      ],
      [
        "0x7ffffff",
        "e"
      ],
      [
        "0x14",
        "4"
      ],
      [
        "0xe",
        "7"
      ],
      [
        "0xffffffff",
        "8"
      ],
      [
        "0xac",
        "010"
      ],
      [
        "0xc",
        "a"
      ],
      [
        "mov",
        "q"
      ],
      [
        "0x30",
        "8"
      ],
      [
        "0x9",
        "e"
      ],
      [
        "b",
        "s"
      ],
      [
        "0x1",
        "d4"
      ],
      [
        "0x10",
        "a"
      ],
      [
        "28",
        "0"
      ],
      [
        "0x3",
        "90"
      ],
      [
        "0x2",
        "d0"
      ],
      [
        "0xc",
        "d"
      ],
      [
        "0xffffffff8",
        "000000"
      ],
      [
        "0xb",
        "5"
      ],
      [
        "cmova",
        "e"
      ],
      [
        "0x8",
        "e"
      ],
      [
        "0xb",
        "d"
      ],
      [
        "0xd",
        "1"
      ],
      [
        "0x17",
        "f"
      ],
      [
        "68",
        "0"
      ],
      [
        "0x1",
        "ab"
      ],
      [
        "0xd",
        "f"
      ],
      [
        "0x29",
        "0"
      ],
      [
        "0x3",
        "f0"
      ],
      [
        "0x1c",
        "b"
      ],
      [
        "0x38",
        "0"
      ],
      [
        "0x2",
        "e0"
      ],
      [
        "0x3",
        "70"
      ],
      [
        "0xc",
        "2"
      ],
      [
        "0x124",
        "60"
      ],
      [
        "0xf",
        "1"
      ],
      [
        "0x2",
        "b8"
      ],
      [
        "0x11",
        "a"
      ],
      [
        "0x5",
        "dc0"
      ],
      [
        "ec",
        "0"
      ],
      [
        "0x3",
        "60"
      ],
      [
        "ed",
        "4"
      ],
      [
        "0x2",
        "e8"
      ],
      [
        "0x3b2",
        "9c"
      ],
      [
        "c",
        "e"
      ],
      [
        "0x3",
        "20"
      ],
      [
        "0x10",
        "b"
      ],
      [
        "0x1",
        "ac"
      ],
      [
        "0x3",
        "d8"
      ],
      [
        "0xe",
        "5"
      ],
      [
        "0x3",
        "e0"
      ],
      [
        "0x20",
        "6"
      ],
      [
        "0xb",
        "6"
      ],
      [
        "0xd",
        "2"
      ],
      [
        "50",
        "c"
      ],
      [
        "0x28",
        "8"
      ],
      [
        "c",
        "o"
      ],
      [
        "0x5",
        "bc4"
      ],
      [
        "m",
        "i"
      ],
      [
        "co",
        "mi"
      ],
      [
        "0x3",
        "10"
      ],
      [
        "0x2c",
        "0"
      ],
      [
        "0x3",
        "2010"
      ],
      [
        "0x11",
        "7"
      ],
      [
        "w",
        "a"
      ],
      [
        "0xd",
        "7"
      ],
      [
        "bs",
        "wa"
      ],
      [
        "bswa",
        "p"
      ],
      [
        "0x121",
        "2c"
      ],
      [
        "0x3",
        "48"
      ],
      [
        "4",
        "d"
      ],
      [
        "0x9",
        "b4"
      ],
      [
        "0xe",
        "3"
      ],
      [
        "0x13",
        "3"
      ],
      [
        "0x3e8",
        "30"
      ],
      [
        "4",
        "a"
      ],
      [
        "0x4",
        "10"
      ],
      [
        "0xb",
        "e"
      ],
      [
        "40",
        "c"
      ],
      [
        "cmov",
        "b"
      ],
      [
        "1c",
        "0"
      ],
      [
        "0x14",
        "010"
      ],
      [
        "0xb3",
        "b8"
      ],
      [
        "0x1",
        "ed"
      ],
      [
        "8",
        "a"
      ],
      [
        "0x3",
        "50"
      ],
      [
        "63",
        "e"
      ],
      [
        "0xf",
        "5"
      ],
      [
        "0x1",
        "b4"
      ],
      [
        "0x3",
        "28"
      ],
      [
        "0x5c",
        "a4"
      ],
      [
        "0x82",
        "ec"
      ],
      [
        "0x800700",
        "7a"
      ],
      [
        "eb",
        "0"
      ],
      [
        "0x13",
        "d"
      ],
      [
        "0x29",
        "260"
      ],
      [
        "eb",
        "8"
      ],
      [
        "3c",
        "8"
      ],
      [
        "0x8c",
        "5"
      ],
      [
        "0xffff",
        "f"
      ],
      [
        "0x1",
        "a4"
      ],
      [
        "0x14",
        "7"
      ],
      [
        "64",
        "c"
      ],
      [
        "0x5d",
        "e8"
      ],
      [
        "0x3",
        "e6"
      ],
      [
        "0xf",
        "a"
      ],
      [
        "0x17",
        "c"
      ],
      [
        "a0",
        "c"
      ],
      [
        "0x5",
        "d8"
      ],
      [
        "6",
        "74"
      ],
      [
        "0x16",
        "4"
      ],
      [
        "0x7",
        "ffffffffffffff"
      ],
      [
        "0x10",
        "3"
      ],
      [
        "6c",
        "0"
      ],
      [
        "0x37",
        "5"
      ],
      [
        "0x1",
        "e9"
      ],
      [
        "0x11",
        "1"
      ],
      [
        "0x3",
        "5c"
      ],
      [
        "0x16",
        "c"
      ],
      [
        "0x64",
        "010"
      ],
      [
        "0x45d",
        "a0"
      ],
      [
        "0x1",
        "bc"
      ],
      [
        "4",
        "2"
      ],
      [
        "0x1",
        "ec"
      ],
      [
        "0x8000400",
        "2"
      ],
      [
        "0xa8",
        "b0"
      ],
      [
        "0x9c",
        "1"
      ],
      [
        "0x2",
        "24"
      ],
      [
        "38",
        "0"
      ],
      [
        "0x18",
        "1"
      ],
      [
        "0x13",
        "9"
      ],
      [
        "0x3",
        "f8"
      ],
      [
        "0x3",
        "58"
      ],
      [
        "0x1",
        "dc"
      ],
      [
        "0x8",
        "20"
      ],
      [
        "0x1",
        "ea"
      ],
      [
        "0x7",
        "a0"
      ],
      [
        "0x15",
        "6"
      ],
      [
        "0x2",
        "2c"
      ],
      [
        "0x12",
        "a"
      ],
      [
        "0x9",
        "dd"
      ],
      [
        "37",
        "f"
      ],
      [
        "0x102",
        "64"
      ],
      [
        "0x2",
        "ea"
      ],
      [
        "0x3",
        "b0"
      ],
      [
        "0x7",
        "e0"
      ],
      [
        "0x778",
        "d8"
      ],
      [
        "c",
        "3"
      ],
      [
        "0x3",
        "18"
      ],
      [
        "0x11",
        "3"
      ],
      [
        "cdq",
        "e"
      ],
      [
        "4",
        "b"
      ],
      [
        "0xc",
        "e"
      ],
      [
        "0x1c",
        "1"
      ],
      [
        "0x3",
        "ea"
      ],
      [
        "0xf",
        "b"
      ],
      [
        "0x15",
        "1"
      ],
      [
        "8",
        "1"
      ],
      [
        "c",
        "b"
      ],
      [
        "n",
        "s"
      ],
      [
        "0x14",
        "2"
      ],
      [
        "0x7",
        "ff"
      ],
      [
        "0xf",
        "e"
      ],
      [
        "4",
        "9"
      ],
      [
        "0x14",
        "3"
      ],
      [
        "9c",
        "0"
      ],
      [
        "0x4ec",
        "e0"
      ],
      [
        "0x2",
        "fc"
      ],
      [
        "0x11",
        "a80"
      ],
      [
        "0xc00000",
        "95"
      ],
      [
        "0x8",
        "23"
      ],
      [
        "0x18",
        "4"
      ],
      [
        "0x34",
        "c"
      ],
      [
        "0x1",
        "0000000"
      ],
      [
        "0x2",
        "d8"
      ],
      [
        "0x19",
        "c"
      ],
      [
        "0x11",
        "2"
      ],
      [
        "cmov",
        "ns"
      ],
      [
        "ac",
        "8"
      ],
      [
        "0x4",
        "00000000000"
      ],
      [
        "0x13",
        "a"
      ],
      [
        "0x36",
        "010"
      ],
      [
        "0x12",
        "9"
      ],
      [
        "0x1b",
        "3"
      ],
      [
        "0x3",
        "d0"
      ],
      [
        "0x4d",
        "b0"
      ],
      [
        "0x2",
        "f8"
      ],
      [
        "0x14",
        "9"
      ],
      [
        "cccc",
        "cccc"
      ],
      [
        "4",
        "5"
      ],
      [
        "4",
        "f"
      ],
      [
        "0x3",
        "38"
      ],
      [
        "c",
        "6"
      ],
      [
        "0x3",
        "7c"
      ],
      [
        "0x15",
        "7"
      ],
      [
        "0x2",
        "66"
      ],
      [
        "0x3",
        "ff"
      ],
      [
        "4",
        "1"
      ],
      [
        "4",
        "e"
      ],
      [
        "0x7",
        "b4"
      ],
      [
        "0x10",
        "9"
      ],
      [
        "0x18",
        "c"
      ],
      [
        "0x2",
        "34"
      ],
      [
        "0x16",
        "a"
      ],
      [
        "comi",
        "sd"
      ],
      [
        "0x4",
        "18"
      ],
      [
        "0x110",
        "10"
      ],
      [
        "c",
        "9"
      ],
      [
        "0x40",
        "2a0"
      ],
      [
        "21",
        "6"
      ],
      [
        "4",
        "6"
      ],
      [
        "8",
        "3"
      ],
      [
        "0x1",
        "bb"
      ],
      [
        "0x3",
        "dd"
      ],
      [
        "0x14",
        "1"
      ],
      [
        "cc",
        "d"
      ],
      [
        "0x21",
        "7"
      ],
      [
        "0x2",
        "54"
      ],
      [
        "0x2",
        "5c"
      ],
      [
        "0x11",
        "9"
      ],
      [
        "0x2c",
        "8"
      ],
      [
        "0x3",
        "a8"
      ],
      [
        "0xe",
        "e0"
      ],
      [
        "0xc000000",
        "1"
      ],
      [
        "0x778",
        "c4"
      ],
      [
        "0x1",
        "e4"
      ],
      [
        "0x3",
        "40"
      ],
      [
        "0xd",
        "e"
      ],
      [
        "48",
        "0"
      ],
      [
        "0x1",
        "e6"
      ],
      [
        "14",
        "c"
      ],
      [
        "0x4",
        "70"
      ],
      [
        "8",
        "9"
      ],
      [
        "0x12",
        "6"
      ],
      [
        "0x2",
        "b9"
      ],
      [
        "r11",
        "w"
      ],
      [
        "0x1c",
        "4"
      ],
      [
        "0x2",
        "3c"
      ],
      [
        "44",
        "4"
      ],
      [
        "0x18",
        "2"
      ],
      [
        "0x22",
        "d0"
      ],
      [
        "8",
        "5"
      ],
      [
        "0x17",
        "4"
      ],
      [
        "0x4",
        "60"
      ],
      [
        "0x12",
        "7"
      ],
      [
        "0x16",
        "7"
      ],
      [
        "98",
        "0"
      ],
      [
        "0x41",
        "29c"
      ],
      [
        "0x1",
        "dd"
      ],
      [
        "0x48",
        "30"
      ],
      [
        "0x32",
        "a8"
      ],
      [
        "0x4",
        "30"
      ],
      [
        "0x18",
        "a"
      ],
      [
        "0x15",
        "3"
      ],
      [
        "0xf",
        "2"
      ],
      [
        "58",
        "0"
      ],
      [
        "c",
        "d"
      ],
      [
        "0xffffffff8000000",
        "2"
      ],
      [
        "0x29",
        "c"
      ],
      [
        "0x24",
        "c"
      ],
      [
        "2c",
        "0"
      ],
      [
        "4",
        "7"
      ],
      [
        "c",
        "7"
      ],
      [
        "0x15",
        "a"
      ],
      [
        "0x1c",
        "3"
      ],
      [
        "0x26",
        "1"
      ],
      [
        "0x2",
        "6c"
      ],
      [
        "0x11",
        "b"
      ],
      [
        "0xd8",
        "60"
      ],
      [
        "0x3",
        "e4"
      ],
      [
        "0x102",
        "ac"
      ],
      [
        "0x3",
        "cc"
      ],
      [
        "0x3",
        "78"
      ],
      [
        "0x15",
        "2"
      ],
      [
        "c",
        "a"
      ],
      [
        "0x2",
        "f4"
      ],
      [
        "0x4",
        "fa"
      ],
      [
        "54",
        "a"
      ],
      [
        "0xffffff",
        "fd"
      ],
      [
        "0x38",
        "8"
      ],
      [
        "0x1b",
        "9"
      ],
      [
        "0xfffff",
        "63e"
      ],
      [
        "0x7",
        "a8"
      ],
      [
        "0x13",
        "1"
      ],
      [
        "cmov",
        "l"
      ],
      [
        "0x25",
        "010"
      ],
      [
        "c",
        "5"
      ],
      [
        "4",
        "3"
      ],
      [
        "0x10",
        "5"
      ],
      [
        "0x19",
        "4"
      ],
      [
        "cmov",
        "g"
      ],
      [
        "0x1b",
        "5"
      ],
      [
        "0x2",
        "ff"
      ],
      [
        "ea",
        "0"
      ],
      [
        "0x3",
        "14"
      ],
      [
        "0x3",
        "22"
      ],
      [
        "0x7",
        "fc"
      ],
      [
        "0x30",
        "7"
      ],
      [
        "0x28",
        "4"
      ],
      [
        "0x16",
        "3"
      ],
      [
        "0x3c",
        "8"
      ],
      [
        "0xab",
        "69"
      ],
      [
        "0x3",
        "ec"
      ],
      [
        "0x1",
        "e3"
      ],
      [
        "0x2",
        "ed"
      ],
      [
        "0x3",
        "fc"
      ],
      [
        "5c",
        "0"
      ],
      [
        "0xea",
        "f8"
      ],
      [
        "0x15",
        "9"
      ],
      [
        "8",
        "2"
      ],
      [
        "0x14",
        "a"
      ],
      [
        "0x19",
        "9"
      ],
      [
        "dc",
        "4"
      ],
      [
        "0x4",
        "64"
      ],
      [
        "0x14",
        "d"
      ],
      [
        "0x29",
        "010"
      ],
      [
        "0x13",
        "6"
      ],
      [
        "0x16",
        "2"
      ],
      [
        "66",
        "66"
      ],
      [
        "0x375",
        "b8"
      ],
      [
        "00",
        "4"
      ],
      [
        "0xc",
        "e0"
      ],
      [
        "0x15",
        "b"
      ],
      [
        "38",
        "4"
      ],
      [
        "7c",
        "0"
      ],
      [
        "1c",
        "4"
      ],
      [
        "0x3",
        "68"
      ],
      [
        "0x4",
        "20"
      ],
      [
        "ps",
        "r"
      ],
      [
        "0x21",
        "c"
      ],
      [
        "0x16",
        "9"
      ],
      [
        "0x12",
        "5"
      ],
      [
        "0x22",
        "3"
      ],
      [
        "0x41",
        "24"
      ],
      [
        "0x1a",
        "1"
      ],
      [
        "0x200",
        "19"
      ],
      [
        "0xe",
        "010"
      ],
      [
        "0x25",
        "f"
      ],
      [
        "0x7f1",
        "1"
      ],
      [
        "0x20a",
        "9c"
      ],
      [
        "c",
        "f"
      ],
      [
        "0x11",
        "6"
      ],
      [
        "0x15",
        "d"
      ],
      [
        "l",
        "dq"
      ],
      [
        "0x3",
        "54"
      ],
      [
        "30",
        "8"
      ],
      [
        "0x1f",
        "4"
      ],
      [
        "90",
        "8"
      ],
      [
        "aaaa",
        "aaaa"
      ],
      [
        "psr",
        "ldq"
      ],
      [
        "c",
        "1"
      ],
      [
        "c",
        "2"
      ],
      [
        "0x19",
        "7"
      ],
      [
        "0x1c",
        "9"
      ],
      [
        "0x17a",
        "78"
      ],
      [
        "0x12",
        "a0"
      ],
      [
        "a4",
        "4"
      ],
      [
        "e4",
        "4"
      ],
      [
        "mov",
        "d"
      ],
      [
        "0x18",
        "3"
      ],
      [
        "2c",
        "8"
      ],
      [
        "0x1",
        "e1"
      ],
      [
        "0x4",
        "e0"
      ],
      [
        "0x18",
        "7"
      ],
      [
        "0x27",
        "4"
      ],
      [
        "0x2",
        "cc"
      ],
      [
        "0x4",
        "d8"
      ],
      [
        "si",
        "2"
      ],
      [
        "ec",
        "4"
      ],
      [
        "cvt",
        "si2"
      ],
      [
        "0x7f11",
        "37f"
      ],
      [
        "0x2",
        "64"
      ],
      [
        "0x2",
        "e4"
      ],
      [
        "0x1c",
        "c"
      ],
      [
        "0x1",
        "e2"
      ],
      [
        "0x11",
        "5"
      ],
      [
        "0x29",
        "4"
      ],
      [
        "28",
        "8"
      ],
      [
        "0x4",
        "e8"
      ],
      [
        "0x24",
        "f"
      ],
      [
        "1c",
        "8"
      ],
      [
        "0x55",
        "a4"
      ],
      [
        "2",
        "3c"
      ],
      [
        "0x3",
        "57"
      ],
      [
        "0x1",
        "aa"
      ],
      [
        "0x4",
        "78"
      ],
      [
        "0x7",
        "688"
      ],
      [
        "0x16",
        "d"
      ],
      [
        "fc",
        "4"
      ],
      [
        "0x23",
        "d"
      ],
      [
        "0x1",
        "e5"
      ],
      [
        "0x48",
        "0"
      ],
      [
        "40",
        "9"
      ],
      [
        "0x2",
        "ac"
      ],
      [
        "0x3",
        "3c"
      ],
      [
        "0x10",
        "6"
      ],
      [
        "0x28",
        "1"
      ],
      [
        "0x4",
        "f8"
      ],
      [
        "fa",
        "2"
      ],
      [
        "a",
        "e0"
      ],
      [
        "0x2",
        "57"
      ],
      [
        "0x2",
        "b3"
      ],
      [
        "0x3",
        "34"
      ],
      [
        "f0",
        "c"
      ],
      [
        "8",
        "d"
      ],
      [
        "c",
        "movs"
      ],
      [
        "0x40",
        "1"
      ],
      [
        "0x27",
        "c"
      ],
      [
        "0x26",
        "9"
      ],
      [
        "0x3",
        "eb"
      ],
      [
        "0x20",
        "4"
      ],
      [
        "8",
        "e"
      ],
      [
        "0x2",
        "b4"
      ],
      [
        "0xf",
        "6"
      ],
      [
        "28",
        "4"
      ],
      [
        "0xef",
        "58"
      ],
      [
        "0x2",
        "ab"
      ],
      [
        "ed",
        "0"
      ],
      [
        "0x6",
        "d1"
      ],
      [
        "0x28",
        "c"
      ],
      [
        "0x1a",
        "7"
      ],
      [
        "15",
        "00"
      ],
      [
        "0x3",
        "9c"
      ],
      [
        "0x3",
        "1c"
      ],
      [
        "0x4",
        "38"
      ],
      [
        "0x4",
        "58"
      ],
      [
        "0x13",
        "7"
      ],
      [
        "0x17",
        "9"
      ],
      [
        "0x20",
        "0000"
      ],
      [
        "0x5",
        "10"
      ],
      [
        "0x30",
        "4"
      ],
      [
        "0x14",
        "6"
      ],
      [
        "d4",
        "4"
      ],
      [
        "e",
        "90"
      ],
      [
        "0x20",
        "b"
      ],
      [
        "0x8",
        "0000"
      ],
      [
        "ac",
        "0"
      ],
      [
        "0x2c",
        "90"
      ],
      [
        "8",
        "6"
      ],
      [
        "e",
        "p"
      ],
      [
        "r",
        "ep"
      ],
      [
        "0x2",
        "a4"
      ],
      [
        "0x21",
        "a"
      ],
      [
        "6",
        "d8"
      ],
      [
        "0x1",
        "e7"
      ],
      [
        "0x3",
        "67"
      ],
      [
        "0x4",
        "f0"
      ],
      [
        "0x18",
        "9"
      ],
      [
        "0x12",
        "d"
      ],
      [
        "0x12",
        "2"
      ],
      [
        "0x17",
        "d"
      ],
      [
        "68",
        "c"
      ],
      [
        "0x16",
        "1"
      ],
      [
        "0x80070",
        "216"
      ],
      [
        "2",
        "10"
      ],
      [
        "8",
        "f"
      ],
      [
        "0x3",
        "66"
      ],
      [
        "0x1d",
        "1"
      ],
      [
        "0x10e",
        "30"
      ],
      [
        "0x5",
        "a4"
      ],
      [
        "0x17",
        "7"
      ],
      [
        "0x39",
        "1"
      ],
      [
        "0x5",
        "a0"
      ],
      [
        "0x8",
        "0000000"
      ],
      [
        "e",
        "38"
      ],
      [
        "0x2",
        "e9"
      ],
      [
        "0x7",
        "64"
      ],
      [
        "0x10",
        "f"
      ],
      [
        "30",
        "4"
      ],
      [
        "0x10d",
        "3c"
      ],
      [
        "5",
        "a0"
      ],
      [
        "8",
        "b"
      ],
      [
        "0x2",
        "bb"
      ],
      [
        "0x4",
        "68"
      ],
      [
        "0x5",
        "78"
      ],
      [
        "8",
        "7"
      ],
      [
        "0x20",
        "9"
      ],
      [
        "98",
        "c"
      ],
      [
        "0x3",
        "24"
      ],
      [
        "0x12",
        "f"
      ],
      [
        "b8",
        "8"
      ],
      [
        "5c",
        "4"
      ],
      [
        "0x3d",
        "a"
      ],
      [
        "0x3",
        "b8"
      ],
      [
        "0x3",
        "98"
      ],
      [
        "st",
        "o"
      ],
      [
        "b8",
        "c"
      ],
      [
        "0x72",
        "60"
      ],
      [
        "0x3",
        "a4"
      ],
      [
        "0x4",
        "b0"
      ],
      [
        "0x20",
        "00"
      ],
      [
        "0x5",
        "f2"
      ],
      [
        "0x11",
        "f"
      ],
      [
        "0x78",
        "0"
      ],
      [
        "40",
        "1"
      ],
      [
        "ab",
        "4"
      ],
      [
        "0x123",
        "20"
      ],
      [
        "0x3",
        "ed"
      ],
      [
        "0x4",
        "50"
      ],
      [
        "0x5",
        "20"
      ],
      [
        "0x19",
        "d"
      ],
      [
        "sto",
        "s"
      ],
      [
        "0x3",
        "94"
      ],
      [
        "0x8",
        "10"
      ],
      [
        "0x18",
        "d"
      ],
      [
        "0x38",
        "2"
      ],
      [
        "0x19",
        "3"
      ],
      [
        "0x24",
        "4"
      ],
      [
        "0x8c5",
        "6c"
      ],
      [
        "0x13",
        "b"
      ],
      [
        "0x17",
        "1"
      ],
      [
        "0xffffffffffffff",
        "e0"
      ],
      [
        "0x17f",
        "1c"
      ],
      [
        "0x3",
        "bc"
      ],
      [
        "0x4",
        "90"
      ],
      [
        "0x20",
        "d"
      ],
      [
        "0x13",
        "f"
      ],
      [
        "0x800",
        "48"
      ],
      [
        "0x1f",
        "a"
      ],
      [
        "9c",
        "4"
      ],
      [
        "14",
        "4"
      ],
      [
        "0x1a",
        "9"
      ],
      [
        "0x2",
        "bc"
      ],
      [
        "73",
        "63"
      ],
      [
        "22",
        "5"
      ],
      [
        "0xe0",
        "6d"
      ],
      [
        "cccc",
        "ccd"
      ],
      [
        "0x823",
        "9c"
      ],
      [
        "ec",
        "8"
      ],
      [
        "cmov",
        "o"
      ],
      [
        "f4",
        "4"
      ],
      [
        "0x3b",
        "24"
      ],
      [
        "b",
        "70"
      ],
      [
        "0xd",
        "1500"
      ],
      [
        "60",
        "8"
      ],
      [
        "30",
        "c"
      ],
      [
        "f8",
        "0"
      ],
      [
        "0x27",
        "d"
      ],
      [
        "0x22",
        "1"
      ],
      [
        "0x5c",
        "0"
      ],
      [
        "cvt",
        "t"
      ],
      [
        "0xe06d",
        "7363"
      ],
      [
        "0x4",
        "98"
      ],
      [
        "0x5",
        "98"
      ],
      [
        "0x13",
        "7f"
      ],
      [
        "23",
        "e"
      ],
      [
        "y",
        "mm"
      ],
      [
        "0x4",
        "d0"
      ],
      [
        "3c",
        "0"
      ],
      [
        "6c",
        "8"
      ],
      [
        "1",
        "39"
      ],
      [
        "0x1f",
        "7"
      ],
      [
        "0x26",
        "f"
      ],
      [
        "0x5d8",
        "c"
      ],
      [
        "0x2",
        "eb"
      ],
      [
        "0x3",
        "2c"
      ],
      [
        "0x3",
        "74"
      ],
      [
        "0x9",
        "e7"
      ],
      [
        "0x17",
        "e"
      ],
      [
        "d8",
        "0"
      ],
      [
        "64",
        "4"
      ],
      [
        "0x1b",
        "a"
      ],
      [
        "0x2",
        "ec"
      ],
      [
        "a0",
        "4"
      ],
      [
        "cmov",
        "be"
      ],
      [
        "0x3",
        "65"
      ],
      [
        "0x4",
        "40"
      ],
      [
        "0x8",
        "7b"
      ],
      [
        "fc",
        "0"
      ],
      [
        "0x2a",
        "9"
      ],
      [
        "0xc00000",
        "e5"
      ],
      [
        "0x9",
        "68"
      ],
      [
        "0x19",
        "010"
      ],
      [
        "0x1c",
        "7"
      ],
      [
        "70",
        "8"
      ],
      [
        "0x29",
        "9"
      ],
      [
        "0x6",
        "90"
      ],
      [
        "0x38",
        "3"
      ],
      [
        "0x19",
        "1"
      ],
      [
        "0x3",
        "d4"
      ],
      [
        "0x5",
        "48"
      ],
      [
        "7c",
        "4"
      ],
      [
        "0xf3",
        "208"
      ],
      [
        "0x5",
        "00"
      ],
      [
        "0x5",
        "40"
      ],
      [
        "0x10",
        "d4"
      ],
      [
        "0x8",
        "50"
      ],
      [
        "0x15",
        "5"
      ],
      [
        "0x42",
        "f0"
      ],
      [
        "0x2",
        "d4"
      ],
      [
        "0xb",
        "62"
      ],
      [
        "0x13",
        "5"
      ],
      [
        "0x21",
        "4"
      ],
      [
        "0x25",
        "9"
      ],
      [
        "0x1a",
        "6"
      ],
      [
        "0x4",
        "48"
      ],
      [
        "0x4",
        "dc"
      ],
      [
        "add",
        "ss"
      ],
      [
        "0x38",
        "c"
      ],
      [
        "e8",
        "0"
      ],
      [
        "0x1a",
        "3"
      ],
      [
        "0x4c",
        "8"
      ],
      [
        "0xb4",
        "24"
      ],
      [
        "0x68",
        "0"
      ],
      [
        "9c",
        "e"
      ],
      [
        "0x2c",
        "4"
      ],
      [
        "0x22",
        "b"
      ],
      [
        "0x2",
        "e1"
      ],
      [
        "0x3",
        "dc"
      ],
      [
        "0x3",
        "33"
      ],
      [
        "0x14",
        "5"
      ],
      [
        "0x17",
        "b"
      ],
      [
        "0x1f",
        "1"
      ],
      [
        "0x1f",
        "c"
      ],
      [
        "78",
        "4"
      ],
      [
        "0x31",
        "1"
      ],
      [
        "0x7b4",
        "70"
      ],
      [
        "0x2",
        "dd"
      ],
      [
        "0x3",
        "61"
      ],
      [
        "ed",
        "8"
      ],
      [
        "0xb",
        "79"
      ],
      [
        "0x19",
        "6"
      ],
      [
        "78",
        "c"
      ],
      [
        "74",
        "c"
      ],
      [
        "ffffff",
        "f"
      ],
      [
        "0x25",
        "a"
      ],
      [
        "0xed",
        "8"
      ],
      [
        "0x11d",
        "f4"
      ],
      [
        "eb",
        "4"
      ],
      [
        "0x8",
        "70"
      ],
      [
        "0x40",
        "8"
      ],
      [
        "0x24",
        "9"
      ],
      [
        "0x1b",
        "1"
      ],
      [
        "0x22",
        "7"
      ],
      [
        "0x1d",
        "3"
      ],
      [
        "0x99",
        "10c"
      ],
      [
        "0x2",
        "b1"
      ],
      [
        "0x2",
        "e7"
      ],
      [
        "0x20",
        "7"
      ],
      [
        "0x1c",
        "d"
      ],
      [
        "78",
        "0"
      ],
      [
        "0x21",
        "9"
      ],
      [
        "0x1b",
        "d"
      ],
      [
        "0x25",
        "b"
      ],
      [
        "0x23",
        "7"
      ],
      [
        "0x8000400",
        "1"
      ],
      [
        "0x5a",
        "e8"
      ],
      [
        "0x2",
        "f2"
      ],
      [
        "0x3",
        "6c"
      ],
      [
        "0x3",
        "62"
      ],
      [
        "0x8",
        "dc"
      ],
      [
        "0x60",
        "5e"
      ],
      [
        "0xf",
        "684"
      ],
      [
        "0x24",
        "1"
      ],
      [
        "34",
        "4"
      ],
      [
        "0x3",
        "b9"
      ],
      [
        "0x5",
        "38"
      ],
      [
        "0xa",
        "444"
      ],
      [
        "58",
        "8"
      ],
      [
        "24",
        "c"
      ],
      [
        "0xeb",
        "b"
      ],
      [
        "0x2",
        "e6"
      ],
      [
        "0x3",
        "e3"
      ],
      [
        "b4",
        "4"
      ],
      [
        "0x1d",
        "7"
      ],
      [
        "0x8007000",
        "2"
      ],
      [
        "0x9b4",
        "b8"
      ],
      [
        "0x2",
        "dd0"
      ],
      [
        "0x3",
        "ac"
      ],
      [
        "0x3",
        "f4"
      ],
      [
        "ed",
        "c"
      ],
      [
        "0x19",
        "2"
      ],
      [
        "40",
        "8"
      ],
      [
        "70",
        "c"
      ],
      [
        "18",
        "4"
      ],
      [
        "0x2",
        "f3"
      ],
      [
        "0x3",
        "5d"
      ],
      [
        "0x4",
        "a0"
      ],
      [
        "0x1c",
        "f0"
      ],
      [
        "0x21",
        "d"
      ],
      [
        "0x16",
        "e"
      ],
      [
        "0x1d",
        "9"
      ],
      [
        "0x1d",
        "b"
      ],
      [
        "0x23",
        "6"
      ],
      [
        "b1",
        "b"
      ],
      [
        "0x54",
        "9"
      ],
      [
        "0x2",
        "b2"
      ],
      [
        "0x3",
        "fe"
      ],
      [
        "0x5",
        "e0"
      ],
      [
        "0x9",
        "b2"
      ],
      [
        "0x38",
        "5"
      ],
      [
        "0x14",
        "f"
      ],
      [
        "0x1c",
        "04"
      ],
      [
        "28",
        "c"
      ],
      [
        "0x22",
        "9"
      ],
      [
        "0x4",
        "a8"
      ],
      [
        "e4",
        "c"
      ],
      [
        "0x1a",
        "d"
      ],
      [
        "fb",
        "e"
      ],
      [
        "50",
        "8"
      ],
      [
        "0x29",
        "7"
      ],
      [
        "dc",
        "8"
      ],
      [
        "0x206",
        "28"
      ],
      [
        "0x2",
        "e5"
      ],
      [
        "0x2",
        "b7"
      ],
      [
        "0x3",
        "f2"
      ],
      [
        "0x4",
        "34"
      ],
      [
        "ff",
        "4"
      ],
      [
        "0x9",
        "2b"
      ],
      [
        "e8",
        "c"
      ],
      [
        "0x1d",
        "f"
      ],
      [
        "0x37",
        "3"
      ],
      [
        "0x57",
        "7"
      ],
      [
        "0x2",
        "aa"
      ],
      [
        "0x2",
        "f9"
      ],
      [
        "0x3",
        "64"
      ],
      [
        "0x6",
        "00"
      ],
      [
        "0x18",
        "5"
      ],
      [
        "0x31",
        "3"
      ],
      [
        "0x3",
        "e1"
      ],
      [
        "0x4",
        "54"
      ],
      [
        "0x6",
        "f5"
      ],
      [
        "0x40",
        "674"
      ],
      [
        "0x13",
        "f8"
      ],
      [
        "0x12",
        "e"
      ],
      [
        "0x1f",
        "3"
      ],
      [
        "70",
        "4"
      ],
      [
        "0x23",
        "1"
      ],
      [
        "0xc7",
        "40"
      ],
      [
        "0x2",
        "f1"
      ],
      [
        "0x2",
        "ba"
      ],
      [
        "0x3",
        "b1"
      ],
      [
        "0x3",
        "6a"
      ],
      [
        "0x4",
        "9c"
      ],
      [
        "0xc",
        "12"
      ],
      [
        "0x14",
        "e"
      ],
      [
        "0x11",
        "e"
      ],
      [
        "0x1c",
        "6"
      ],
      [
        "0x1f",
        "000"
      ],
      [
        "0x16",
        "5"
      ],
      [
        "98",
        "e"
      ],
      [
        "0x26",
        "7"
      ],
      [
        "0xd8",
        "20"
      ],
      [
        "0x134",
        "e4"
      ],
      [
        "0x3",
        "f1"
      ],
      [
        "0x4",
        "7c"
      ],
      [
        "0x5",
        "b0"
      ],
      [
        "0x18",
        "b"
      ],
      [
        "0x40",
        "4"
      ],
      [
        "24",
        "4"
      ],
      [
        "0x22",
        "a"
      ],
      [
        "0x2a",
        "3"
      ],
      [
        "0x8000000",
        "5"
      ],
      [
        "0x2",
        "e2"
      ],
      [
        "0x3",
        "51"
      ],
      [
        "0x18",
        "f"
      ],
      [
        "0x40",
        "9"
      ],
      [
        "0x58",
        "4c"
      ],
      [
        "0x19",
        "a"
      ],
      [
        "6c",
        "4"
      ],
      [
        "0x4c",
        "0"
      ],
      [
        "0x3",
        "53"
      ],
      [
        "0x30",
        "1"
      ],
      [
        "0x30",
        "9"
      ],
      [
        "0x13",
        "d0"
      ],
      [
        "0x12",
        "80"
      ],
      [
        "0x17",
        "3"
      ],
      [
        "0x1b",
        "7"
      ],
      [
        "0x25",
        "1"
      ],
      [
        "0xffffff",
        "f8"
      ],
      [
        "0x298",
        "dc"
      ],
      [
        "5",
        "d0"
      ],
      [
        "0x2",
        "dc"
      ],
      [
        "0x2",
        "fa"
      ],
      [
        "0x3",
        "63"
      ],
      [
        "0x4",
        "d9"
      ],
      [
        "0x26",
        "2"
      ],
      [
        "51",
        "f"
      ],
      [
        "0xab",
        "f8"
      ],
      [
        "0x2",
        "e3"
      ],
      [
        "0x6",
        "ed"
      ],
      [
        "0x8",
        "68"
      ],
      [
        "0x24",
        "b"
      ],
      [
        "18",
        "8"
      ],
      [
        "0x1",
        "0000"
      ],
      [
        "ea",
        "c"
      ],
      [
        "0xb",
        "28"
      ],
      [
        "0x19",
        "b"
      ],
      [
        "6",
        "58"
      ],
      [
        "0x38",
        "4"
      ],
      [
        "0x19",
        "5"
      ],
      [
        "0x1c",
        "2"
      ],
      [
        "54",
        "c"
      ],
      [
        "0x27",
        "9"
      ],
      [
        "f0",
        "8"
      ],
      [
        "b1",
        "7"
      ],
      [
        "0xed8",
        "f1"
      ],
      [
        "0x20",
        "1"
      ],
      [
        "0x7",
        "b0"
      ],
      [
        "0x21",
        "1"
      ],
      [
        "0x1b",
        "2"
      ],
      [
        "0x31",
        "a"
      ],
      [
        "17",
        "2"
      ],
      [
        "0x7ffffffffffffff",
        "e"
      ],
      [
        "ff",
        "0"
      ],
      [
        "0x20",
        "3"
      ],
      [
        "0x5",
        "74"
      ],
      [
        "0x7",
        "18"
      ],
      [
        "0x18",
        "6"
      ],
      [
        "0x9",
        "e6"
      ],
      [
        "0x29",
        "b"
      ],
      [
        "90",
        "c"
      ],
      [
        "0x1d",
        "6"
      ],
      [
        "0x1d",
        "a"
      ],
      [
        "0x1eb",
        "90"
      ],
      [
        "ff",
        "8"
      ],
      [
        "0x5",
        "488"
      ],
      [
        "cc",
        "c"
      ],
      [
        "0x1a",
        "5"
      ],
      [
        "0x26",
        "a"
      ],
      [
        "s",
        "d2"
      ],
      [
        "0x3",
        "23"
      ],
      [
        "0x4",
        "14"
      ],
      [
        "0x7",
        "f0"
      ],
      [
        "20",
        "c"
      ],
      [
        "98",
        "4"
      ],
      [
        "0x24",
        "a"
      ],
      [
        "bc",
        "8"
      ],
      [
        "0x22",
        "2"
      ],
      [
        "0x22",
        "6"
      ],
      [
        "0x25",
        "3"
      ],
      [
        "0x23",
        "3"
      ],
      [
        "0x4f1",
        "b8"
      ],
      [
        "0xbf",
        "50"
      ],
      [
        "cvtt",
        "sd2"
      ],
      [
        "cvttsd2",
        "si"
      ],
      [
        "0x3",
        "e2"
      ],
      [
        "0x4",
        "28"
      ],
      [
        "0x8",
        "6d"
      ],
      [
        "0x1c",
        "f"
      ],
      [
        "0x1f",
        "9"
      ],
      [
        "0x16",
        "b"
      ],
      [
        "2c",
        "4"
      ],
      [
        "0x47",
        "7"
      ],
      [
        "0xa3",
        "f4"
      ],
      [
        "0xffffff",
        "3f"
      ],
      [
        "0x80000",
        "00000000000"
      ],
      [
        "0x2",
        "fd"
      ],
      [
        "0x3",
        "b4"
      ],
      [
        "0x4",
        "6d"
      ],
      [
        "0x5",
        "d0"
      ],
      [
        "10",
        "8"
      ],
      [
        "0x15",
        "f"
      ],
      [
        "0x27",
        "3"
      ],
      [
        "0x24",
        "3"
      ],
      [
        "0x1a",
        "2"
      ],
      [
        "0x2",
        "fb"
      ],
      [
        "0x3",
        "e7"
      ],
      [
        "0x3",
        "fd"
      ],
      [
        "0x4",
        "a4"
      ],
      [
        "0x4",
        "62"
      ],
      [
        "dd",
        "8"
      ],
      [
        "0x7",
        "d0"
      ],
      [
        "0x40",
        "3"
      ],
      [
        "0x1f",
        "2"
      ],
      [
        "e8",
        "7"
      ],
      [
        "0x16",
        "6"
      ],
      [
        "0x23",
        "9"
      ],
      [
        "0x3",
        "69"
      ],
      [
        "0x3",
        "5a"
      ],
      [
        "0x40",
        "5"
      ],
      [
        "0x9",
        "50"
      ],
      [
        "0x7c",
        "0"
      ],
      [
        "55",
        "55"
      ],
      [
        "0xc00000",
        "23"
      ],
      [
        "0x4",
        "66"
      ],
      [
        "0x4",
        "5010"
      ],
      [
        "0x5",
        "b4"
      ],
      [
        "xmm",
        "7"
      ],
      [
        "0x28",
        "7"
      ],
      [
        "0x58",
        "0"
      ],
      [
        "9c",
        "8"
      ],
      [
        "0x1b",
        "b0"
      ],
      [
        "0x3c",
        "4"
      ],
      [
        "5d",
        "2"
      ],
      [
        "0xa",
        "010"
      ],
      [
        "0x9",
        "ff"
      ],
      [
        "0xb",
        "b2"
      ],
      [
        "0x17",
        "2"
      ],
      [
        "0x8000400",
        "3"
      ],
      [
        "5",
        "20"
      ],
      [
        "0x3",
        "37"
      ],
      [
        "0x4",
        "2c"
      ],
      [
        "0x4",
        "94"
      ],
      [
        "0x4",
        "23"
      ],
      [
        "dd",
        "c"
      ],
      [
        "0x7",
        "f8"
      ],
      [
        "0x8",
        "d0"
      ],
      [
        "0x28",
        "3"
      ],
      [
        "0xd",
        "28"
      ],
      [
        "a8",
        "8"
      ],
      [
        "38",
        "c"
      ],
      [
        "0x2c",
        "1"
      ],
      [
        "0x200000",
        "000000"
      ],
      [
        "0x1f",
        "b"
      ],
      [
        "0x22",
        "d"
      ],
      [
        "9a",
        "9"
      ],
      [
        "f",
        "60"
      ],
      [
        "0x2",
        "f7"
      ],
      [
        "0x7",
        "6c"
      ],
      [
        "0x7",
        "b7"
      ],
      [
        "0x8",
        "dd"
      ],
      [
        "0x9",
        "cc"
      ],
      [
        "20",
        "4"
      ],
      [
        "0x13",
        "e"
      ],
      [
        "0x1f",
        "a4"
      ],
      [
        "48",
        "9"
      ],
      [
        "0x3",
        "fb"
      ],
      [
        "0x4",
        "74"
      ],
      [
        "0xc",
        "cccccccc"
      ],
      [
        "58",
        "c"
      ],
      [
        "0xa8",
        "8"
      ],
      [
        "0xccccccccc",
        "ccccccd"
      ],
      [
        "0x4",
        "b8"
      ],
      [
        "0x6",
        "30"
      ],
      [
        "0x6",
        "cc"
      ],
      [
        "0x38",
        "7"
      ],
      [
        "0xb",
        "10"
      ],
      [
        "0x17",
        "6"
      ],
      [
        "e8",
        "4"
      ],
      [
        "54",
        "4"
      ],
      [
        "24",
        "9"
      ],
      [
        "0x3",
        "aa"
      ],
      [
        "0x3",
        "e9"
      ],
      [
        "0x7",
        "98"
      ],
      [
        "e0",
        "4"
      ],
      [
        "e8",
        "8"
      ],
      [
        "0x24",
        "6"
      ],
      [
        "0x24",
        "7"
      ],
      [
        "0x34",
        "4"
      ],
      [
        "0x2a",
        "f"
      ],
      [
        "0x20",
        "5"
      ],
      [
        "0x5",
        "67"
      ],
      [
        "0x7",
        "a4"
      ],
      [
        "0xa",
        "f8"
      ],
      [
        "0xd",
        "14"
      ],
      [
        "0x17",
        "5"
      ],
      [
        "ec",
        "c"
      ],
      [
        "0x21",
        "2"
      ],
      [
        "18",
        "c"
      ],
      [
        "0x1d",
        "5"
      ],
      [
        "0x1d",
        "cc"
      ],
      [
        "0x7a8",
        "6c"
      ],
      [
        "0x3",
        "ab"
      ],
      [
        "0x5",
        "b8"
      ],
      [
        "0x30",
        "c"
      ],
      [
        "0x40",
        "a"
      ],
      [
        "0xb",
        "b0"
      ],
      [
        "0xe",
        "ec0"
      ],
      [
        "0x29",
        "a"
      ],
      [
        "78",
        "8"
      ],
      [
        "0x71",
        "bc"
      ],
      [
        "0x2",
        "bd"
      ],
      [
        "0x20",
        "2"
      ],
      [
        "e0",
        "8"
      ],
      [
        "48",
        "c"
      ],
      [
        "3c",
        "f"
      ],
      [
        "74",
        "7"
      ],
      [
        "0x25",
        "2"
      ],
      [
        "4c",
        "0"
      ],
      [
        "i",
        "div"
      ],
      [
        "0x3",
        "59"
      ],
      [
        "0x6",
        "e8"
      ],
      [
        "0x9",
        "62"
      ],
      [
        "0xc",
        "29"
      ],
      [
        "0x1c",
        "a"
      ],
      [
        "bc",
        "0"
      ],
      [
        "0xffffff",
        "fb"
      ],
      [
        "e",
        "00"
      ],
      [
        "0x7",
        "90"
      ],
      [
        "0xa",
        "14"
      ],
      [
        "0x15",
        "20"
      ],
      [
        "0x21",
        "6"
      ],
      [
        "d4",
        "c"
      ],
      [
        "0x23",
        "2"
      ],
      [
        "0x8000000",
        "b"
      ],
      [
        "0xfd",
        "e9"
      ],
      [
        "0x3",
        "e5"
      ],
      [
        "0x3",
        "fffffff"
      ],
      [
        "00",
        "8"
      ],
      [
        "0x6",
        "98"
      ],
      [
        "0x8",
        "90"
      ],
      [
        "18",
        "0"
      ],
      [
        "bb",
        "c"
      ],
      [
        "0x39",
        "7"
      ],
      [
        "0x4",
        "24"
      ],
      [
        "0x5",
        "30"
      ],
      [
        "0x5",
        "50"
      ],
      [
        "0x6",
        "10"
      ],
      [
        "0x6",
        "20"
      ],
      [
        "0x6",
        "b8"
      ],
      [
        "0x78",
        "6d8"
      ],
      [
        "9c",
        "2"
      ],
      [
        "0x27",
        "1"
      ],
      [
        "0x1b",
        "6"
      ],
      [
        "mul",
        "ss"
      ],
      [
        "0x9d",
        "488"
      ],
      [
        "0xc12",
        "b4"
      ],
      [
        "0x3",
        "bb"
      ],
      [
        "0x3",
        "55"
      ],
      [
        "0x3",
        "52"
      ],
      [
        "0x3",
        "b3"
      ],
      [
        "0x4",
        "63"
      ],
      [
        "0x5",
        "60"
      ],
      [
        "0x5",
        "90"
      ],
      [
        "0x7",
        "ed"
      ],
      [
        "0x7",
        "b8"
      ],
      [
        "b0",
        "c"
      ],
      [
        "0x21",
        "3"
      ],
      [
        "d8",
        "8"
      ],
      [
        "fc",
        "8"
      ],
      [
        "0x1d",
        "2"
      ],
      [
        "0x2a",
        "7"
      ],
      [
        "0x3d",
        "20"
      ],
      [
        "0x7",
        "70"
      ],
      [
        "0x28",
        "f"
      ],
      [
        "0x9",
        "20"
      ],
      [
        "0x29",
        "d"
      ],
      [
        "f8",
        "8"
      ],
      [
        "0x4fa",
        "e0"
      ],
      [
        "0x6d1",
        "28"
      ],
      [
        "0x3",
        "bd"
      ],
      [
        "0x5",
        "7c"
      ],
      [
        "0x7",
        "b3"
      ],
      [
        "0x8",
        "a0"
      ],
      [
        "0x9",
        "5b"
      ],
      [
        "0xb",
        "aa"
      ],
      [
        "f0",
        "4"
      ],
      [
        "0x88",
        "0"
      ],
      [
        "a4",
        "c"
      ],
      [
        "f4",
        "c"
      ],
      [
        "0x2d",
        "3"
      ],
      [
        "cmovg",
        "e"
      ],
      [
        "0xa",
        "90"
      ],
      [
        "0xd",
        "00000"
      ],
      [
        "b8",
        "4"
      ],
      [
        "22",
        "e"
      ],
      [
        "0x2d",
        "1"
      ],
      [
        "0x10a",
        "40"
      ],
      [
        "cmovl",
        "e"
      ],
      [
        "0x28",
        "d"
      ],
      [
        "0x40",
        "6"
      ],
      [
        "0x40",
        "c"
      ],
      [
        "0xa",
        "50"
      ],
      [
        "10",
        "4"
      ],
      [
        "98",
        "8"
      ],
      [
        "24",
        "6"
      ],
      [
        "bb",
        "d"
      ],
      [
        "0x31",
        "b"
      ],
      [
        "e6",
        "a"
      ],
      [
        "a",
        "ab"
      ],
      [
        "e",
        "f0"
      ],
      [
        "0x3",
        "b7"
      ],
      [
        "0x5",
        "58"
      ],
      [
        "0x6",
        "48"
      ],
      [
        "20",
        "80"
      ],
      [
        "0x1c",
        "5"
      ],
      [
        "a8",
        "4"
      ],
      [
        "a8",
        "c"
      ],
      [
        "e5",
        "2"
      ],
      [
        "0x33",
        "2"
      ],
      [
        "0x3",
        "f3"
      ],
      [
        "0x4",
        "cc"
      ],
      [
        "0x4",
        "1c"
      ],
      [
        "0x4",
        "e6"
      ],
      [
        "0x4",
        "21"
      ],
      [
        "0x7",
        "cc"
      ],
      [
        "0x7",
        "d7"
      ],
      [
        "0xa",
        "20"
      ],
      [
        "3c",
        "4"
      ],
      [
        "0x1b",
        "a0c"
      ],
      [
        "0x54",
        "68"
      ],
      [
        "0x87b",
        "2080"
      ],
      [
        "f",
        "2c"
      ],
      [
        "ff",
        "f"
      ],
      [
        "0x6",
        "3c"
      ],
      [
        "0x30",
        "5"
      ],
      [
        "0x28",
        "b"
      ],
      [
        "0x88",
        "ae0"
      ],
      [
        "0x2c",
        "3"
      ],
      [
        "57",
        "f"
      ],
      [
        "0x23",
        "a"
      ],
      [
        "0x26",
        "3"
      ],
      [
        "53",
        "e"
      ],
      [
        "0x61",
        "28"
      ],
      [
        "0x12a0",
        "e8"
      ],
      [
        "stos",
        "b"
      ],
      [
        "0x6f5",
        "18"
      ],
      [
        "0x2",
        "fe"
      ],
      [
        "ea",
        "8"
      ],
      [
        "0x5",
        "ab"
      ],
      [
        "0x5",
        "31"
      ],
      [
        "0x7",
        "00"
      ],
      [
        "0x38",
        "9"
      ],
      [
        "0x27",
        "2"
      ],
      [
        "0x27",
        "b"
      ],
      [
        "0x39",
        "3"
      ],
      [
        "0x7ffffffffffffff",
        "f"
      ],
      [
        "0x8",
        "3a"
      ],
      [
        "0xe",
        "e"
      ],
      [
        "0x21",
        "5"
      ],
      [
        "0x2a",
        "1"
      ],
      [
        "f",
        "00"
      ],
      [
        "ea",
        "4"
      ],
      [
        "0x3",
        "f9"
      ],
      [
        "0x4",
        "fc"
      ],
      [
        "0x8",
        "b8"
      ],
      [
        "23",
        "3"
      ],
      [
        "e3",
        "9"
      ],
      [
        "0x2a",
        "5"
      ],
      [
        "0x57",
        "3c8"
      ],
      [
        "0x6c",
        "0"
      ],
      [
        "e",
        "64"
      ],
      [
        "0x5",
        "54"
      ],
      [
        "0x6",
        "60"
      ],
      [
        "0xc",
        "010"
      ],
      [
        "e0",
        "c"
      ],
      [
        "f8",
        "c"
      ],
      [
        "24",
        "3"
      ],
      [
        "0x31",
        "7"
      ],
      [
        "0x3d",
        "2"
      ],
      [
        "0x7",
        "67"
      ],
      [
        "0x30",
        "3"
      ],
      [
        "0x9",
        "d8"
      ],
      [
        "0x9",
        "fc"
      ],
      [
        "0xd",
        "00"
      ],
      [
        "0x1f",
        "6"
      ],
      [
        "54",
        "f"
      ],
      [
        "18",
        "5"
      ],
      [
        "0x41",
        "7"
      ],
      [
        "0xc0000",
        "409"
      ],
      [
        "23",
        "2"
      ],
      [
        "0x32",
        "d"
      ],
      [
        "0x9d",
        "ebc"
      ],
      [
        "0xed",
        "30"
      ],
      [
        "0x65",
        "dc"
      ],
      [
        "e",
        "50"
      ],
      [
        "0x7",
        "60"
      ],
      [
        "0x8",
        "30"
      ],
      [
        "0x9",
        "e0"
      ],
      [
        "0x9",
        "58"
      ],
      [
        "0x9",
        "db"
      ],
      [
        "0x19",
        "f"
      ],
      [
        "60",
        "5e"
      ],
      [
        "a8",
        "3"
      ],
      [
        "0x2c",
        "9"
      ],
      [
        "0x2c",
        "d"
      ],
      [
        "mul",
        "sd"
      ],
      [
        "0x41",
        "1"
      ],
      [
        "0x1a",
        "f"
      ],
      [
        "0x71",
        "b70"
      ],
      [
        "0xac",
        "d0"
      ],
      [
        "0x1c0",
        "48"
      ],
      [
        "0x6",
        "b0"
      ],
      [
        "0x30",
        "208"
      ],
      [
        "0xa",
        "00"
      ],
      [
        "0x9",
        "b8"
      ],
      [
        "d0",
        "8"
      ],
      [
        "0x24",
        "5"
      ],
      [
        "0x26",
        "d"
      ],
      [
        "0x47",
        "9c"
      ],
      [
        "f7",
        "6"
      ],
      [
        "0x738",
        "c"
      ],
      [
        "0xb62",
        "a0"
      ],
      [
        "0x4",
        "bb"
      ],
      [
        "0x4",
        "51"
      ],
      [
        "0x5",
        "6d"
      ],
      [
        "0x7",
        "68"
      ],
      [
        "0x7",
        "40"
      ],
      [
        "0x28",
        "9"
      ],
      [
        "0x9",
        "77"
      ],
      [
        "0x13",
        "b80"
      ],
      [
        "0x27",
        "7"
      ],
      [
        "0x34",
        "3"
      ],
      [
        "e7",
        "9"
      ],
      [
        "0x32",
        "7"
      ],
      [
        "0xf0",
        "4"
      ],
      [
        "0x1ab",
        "4"
      ],
      [
        "0x7e0",
        "18"
      ],
      [
        "1",
        "ec"
      ],
      [
        "0x4",
        "000"
      ],
      [
        "0x4",
        "9a"
      ],
      [
        "0x6",
        "55"
      ],
      [
        "add",
        "sd"
      ],
      [
        "0x48",
        "8"
      ],
      [
        "60",
        "4"
      ],
      [
        "0x1f",
        "d"
      ],
      [
        "38",
        "8"
      ],
      [
        "7c",
        "1"
      ],
      [
        "94",
        "c"
      ],
      [
        "0x23",
        "b"
      ],
      [
        "0x56",
        "54"
      ],
      [
        "0x25f",
        "ec"
      ],
      [
        "0xebb",
        "74"
      ],
      [
        "0x3",
        "d7"
      ],
      [
        "0x4",
        "6c"
      ],
      [
        "0x4",
        "b9"
      ],
      [
        "0x4",
        "33"
      ],
      [
        "0xb",
        "99"
      ],
      [
        "0x13",
        "010"
      ],
      [
        "ac",
        "a"
      ],
      [
        "ac",
        "e"
      ],
      [
        "0x34",
        "9"
      ],
      [
        "f7",
        "a"
      ],
      [
        "0x8c",
        "4"
      ],
      [
        "0x6",
        "34"
      ],
      [
        "0x8",
        "60"
      ],
      [
        "0x18",
        "94"
      ],
      [
        "0x24",
        "2"
      ],
      [
        "14",
        "a"
      ],
      [
        "5c",
        "8"
      ],
      [
        "23",
        "d"
      ],
      [
        "fb",
        "f"
      ],
      [
        "0x2d",
        "2"
      ],
      [
        "0x35",
        "30"
      ],
      [
        "0x3",
        "64c"
      ],
      [
        "0x4",
        "ea"
      ],
      [
        "0x4",
        "d4"
      ],
      [
        "0x4",
        "27"
      ],
      [
        "0x30",
        "84"
      ],
      [
        "0x1f",
        "5"
      ],
      [
        "0x31",
        "5"
      ],
      [
        "0x25",
        "6"
      ],
      [
        "0x32",
        "9"
      ],
      [
        "0x80070",
        "29c"
      ],
      [
        "0x4",
        "37"
      ],
      [
        "0x5",
        "28"
      ],
      [
        "0x5",
        "18"
      ],
      [
        "0x5",
        "6c"
      ],
      [
        "dd",
        "4"
      ],
      [
        "0x6",
        "e5"
      ],
      [
        "0x7",
        "7c"
      ],
      [
        "b0",
        "8"
      ],
      [
        "0x2c",
        "b"
      ],
      [
        "57",
        "7"
      ],
      [
        "0x41",
        "2"
      ],
      [
        "66",
        "7"
      ],
      [
        "0x26",
        "5"
      ],
      [
        "37",
        "3"
      ],
      [
        "0xffffff",
        "fc"
      ],
      [
        "0x80070",
        "4"
      ],
      [
        "aaaaaaaa",
        "aaaa"
      ],
      [
        "cvtsi2",
        "sd"
      ],
      [
        "f",
        "98"
      ],
      [
        "0x4",
        "3c"
      ],
      [
        "0x4",
        "69"
      ],
      [
        "0x4",
        "2a"
      ],
      [
        "0x5",
        "f0"
      ],
      [
        "0xa",
        "30"
      ],
      [
        "0x9",
        "00"
      ],
      [
        "0x19",
        "e"
      ],
      [
        "9c",
        "5"
      ],
      [
        "58",
        "6"
      ],
      [
        "0x37",
        "9"
      ],
      [
        "0x3a",
        "1c"
      ],
      [
        "0xbb",
        "ac"
      ],
      [
        "0x156",
        "a0"
      ],
      [
        "f",
        "a4"
      ],
      [
        "0x3",
        "fa"
      ],
      [
        "0x5",
        "ed"
      ],
      [
        "0x6",
        "a0"
      ],
      [
        "0x6",
        "40"
      ],
      [
        "0x6",
        "70"
      ],
      [
        "0x6",
        "58"
      ],
      [
        "0x7",
        "29"
      ],
      [
        "0x8",
        "40"
      ],
      [
        "0xd",
        "1d"
      ],
      [
        "ec",
        "b"
      ],
      [
        "50",
        "1"
      ],
      [
        "0x29",
        "1"
      ],
      [
        "90",
        "2"
      ],
      [
        "0x27",
        "5"
      ],
      [
        "0x34",
        "b"
      ],
      [
        "0x3c",
        "9"
      ],
      [
        "fd",
        "5"
      ],
      [
        "f2",
        "6"
      ],
      [
        "0x33",
        "a"
      ],
      [
        "0xbc",
        "10"
      ],
      [
        "0x4",
        "e1"
      ],
      [
        "0x4",
        "e3"
      ],
      [
        "ff",
        "c"
      ],
      [
        "0x5",
        "70"
      ],
      [
        "0x6",
        "e0"
      ],
      [
        "0x6",
        "53"
      ],
      [
        "0x6",
        "3d"
      ],
      [
        "0x9",
        "54"
      ],
      [
        "0xb",
        "2a"
      ],
      [
        "0xe",
        "00"
      ],
      [
        "60",
        "5"
      ],
      [
        "24",
        "7"
      ],
      [
        "74",
        "4"
      ],
      [
        "0x2c",
        "7"
      ],
      [
        "0x22",
        "5"
      ],
      [
        "f7",
        "7"
      ],
      [
        "d7",
        "b"
      ],
      [
        "0x4d",
        "6"
      ],
      [
        "0x3",
        "6d"
      ],
      [
        "0x5",
        "66"
      ],
      [
        "0x6",
        "64"
      ],
      [
        "0x7",
        "10"
      ],
      [
        "0x7",
        "2c"
      ],
      [
        "0x8",
        "f4"
      ],
      [
        "0x15",
        "e"
      ],
      [
        "60",
        "d"
      ],
      [
        "ab",
        "9"
      ],
      [
        "6c",
        "2"
      ],
      [
        "5c",
        "3"
      ],
      [
        "0x23",
        "5"
      ],
      [
        "e3",
        "f"
      ],
      [
        "5a",
        "5"
      ],
      [
        "0x33",
        "6"
      ],
      [
        "0x6",
        "f0"
      ],
      [
        "0x7",
        "ffff"
      ],
      [
        "0x7",
        "d8"
      ],
      [
        "0x30",
        "d"
      ],
      [
        "0x9",
        "000"
      ],
      [
        "0x9",
        "4c"
      ],
      [
        "70",
        "2"
      ],
      [
        "ab",
        "b"
      ],
      [
        "ac",
        "4"
      ],
      [
        "98",
        "2"
      ],
      [
        "9a",
        "1"
      ],
      [
        "0x32",
        "b"
      ],
      [
        "0x4",
        "e4"
      ],
      [
        "00",
        "d"
      ],
      [
        "0x6",
        "d0"
      ],
      [
        "0x7",
        "3a"
      ],
      [
        "0x8",
        "7c"
      ],
      [
        "0xc",
        "e4"
      ],
      [
        "0x14",
        "a1"
      ],
      [
        "0x12",
        "40"
      ],
      [
        "48",
        "1"
      ],
      [
        "b4",
        "c"
      ],
      [
        "0x2c",
        "a"
      ],
      [
        "e7",
        "3"
      ],
      [
        "6d",
[...]
